#map0 = affine_map<(d0, d1) -> (d0 * 6 + d1)>
#map1 = affine_map<(d0) -> (-d0 + 2, 0)>
#map2 = affine_map<(d0) -> (-d0 + 30, 5)>
#map3 = affine_map<(d0, d1) -> (-d1 + 2, 0)>
#map4 = affine_map<(d0, d1) -> (-d1 + 30, 5)>
#map5 = affine_map<(d0)[s0] -> (d0 + s0)>
#map6 = affine_map<(d0, d1) -> (d0 + d1 - 2)>
#map7 = affine_map<(d0) -> (0, d0 * 2)>
#map8 = affine_map<(d0)[s0, s1, s2, s3, s4] -> (s0 - ((s2 ceildiv s4) * s4 - s2), -(d0 * s3 - s2) + s0, d0 * s3 + (s1 - 1) * s4 - s2 - ((s2 ceildiv s4) * s4 - s2) + 1, d0 * s3 + (s1 - 1) * s4 - s2 - (d0 * s3 - s2) + 1)>
#map9 = affine_map<(d0, d1, d2) -> (d0 * 196 + d1 * 14 + d2)>
module attributes {llvm.data_layout = "e-m:e-p270:32:32-p271:32:32-p272:64:64-i64:64-f80:128-n8:16:32:64-S128", llvm.target_triple = "x86_64-unknown-linux-gnu"} {
  memref.global constant @constant_3 : memref<10xf32> = dense<[0.0371764563, 0.0940912962, 0.0229231976, -0.0478716418, 0.00533773191, 0.0370254703, -0.0195817221, -0.00357899209, -0.0564707108, -0.0324595459]>
  memref.global constant @constant_2 : memref<10x1176xf32> = dense<"0xB86F213E9F5FCDBD9076BBBBA17BC4BCBF5D53BE683C2FBE90DCACBE8719DCBBC469BFBEC9BB28BD907136BE9AAD39BE6514C0BD01E01ABE0FA6BB3D97BE3CBE652005BE6118CEBB327BB7BB445E7BBCAFD19ABC590CE1BC4790963DB17204BE150033BEF5A456BEAEDA873D0B3AA3BD5AC83E3DF63218BD6B36273CABD8A0BDCAAFCABC2E3471BDD5B61A3D4720DD3C98B6C23B4BBE893D95C96CBC61C918BEE11C4EBD706496BD2C2AEF3CC59E76BD325B94BD90FF13BD63988B3C834E7DBD1EBD81BB9D32A03DAE5F973DF14EA83DA5105A3DDF58973DCD5490BD4EDF163EBA0D053D49E289BD6429A3BC6B8BC9BC00F6C6BC10AD9D3C6F656F3CBE2E433DD3EDD03D8DC4D13DE021813BED352CBD4F99293DA595003E7E1C3EBD8A3E81BD37381C3DE01E56BDD3BB8E3A8B63483D5168893CC456903D8E5F593DA7B3243CC0F4633CADBB373DA4721E3D0F781EBE359382BC1D5066BA0572B53DFB945B3DA1D77CBC48F272BBE16C94BB18FA283C1E3F4EBDD00267BC80FE1DBDC2FC593DFA582DBD9342173C0DC21BBDD1D9C3BCCFC48B3D9CD0AE3D56F3B9BC215F3FBD1D9F52BD4F0E8C3B4819DCBD1459ABBBE6A933BD7B21F73C90970DBD3BA443BD330F0BBE916DD33D4A6002BDB822723DCA782A3D459A06BD485C07BCAD76FEBDA38F18BDF79E503D8BD7A63DAE683B3D2406403D0DCB4ABE3E9B4EBDAA3EF03DB70F3DBCF960153D7D2BF63C78B8043D208CBBBDE079AFBC311A243C2F62A63BC203AD3B17C4843C14F4353DBB4B0ABEABF5A1BD7698393DC60D103D80DB473DB5A443BD4E45F93DC5BF153DD6F7BFBA03425FBD7DF7923CF9CFD03DCA14E83C6D278B3D99C45BBE7F924B3DEF9518BDDBCA8C3DC6B0A63C3336013CCBE0583D6725B33D86C383BCF04FDA3CF7DC203C9D2D64BDA500113DCD9D53BE316624BDE17259BDE52381BD788B59BD4D6C403D52DC85BDB2BD443D1C5AB93D0AA2C23AF0DED33CF4F7503DA71284BDDC6A73BCED6226BEBEA5E3BDD00D9FBD7CB2AD3DF0C22ABD18D948BD58760EBE5020B8BDE7BDE43CA5EF9BBD97CE84BE625E30BE21417FBE2A4E04BEE2C668BD7C719FBC533C45BD1A243E3DFE7B02BC4917EF3AFA6A38BD10B4703DCE2463BA9EF8743D5D513D3DD151C9BA18CCA83DE00F2E3DB2C28E3D06469D3D4AAF28BD528C1F3D94E5993D5330B83D242A143DD0640C3DC746C43D0505B7BCD16FAC3DC5246A3C7F62953DDA9C8C3D5EBAE8BA25A816BD06BA603D13C8183C44008F3DFF078A3DE7CC3E3D060E2E3C2F8407BD1BA14C3D91A855BCCEEE623D07ECB63CD17C54BD7DC28C3D72E0953D4F71743D7EADC4BBEC5BB33C63EE5F3D36AA9ABD54FF01BD82F1EABCD4BCBEBDBCF4B5BD0CB0F4BD6A07E7BD8B39163C6B5C96BC9F0C1A3D3CF46F3DE2ED963D09EEFC3CDA10C93C304C833D161B153DD1A2CABCA2E9E7BD558EFBBDD1613ABE20804EBE7CB2A4BDBF66373CD96AA3BC8501C9BCDB008DBBD50BCA3DAE871A3DAD74993C4D6C69BD1F931CBD489F6BBD8C678EBD0AE73CBED66D69BEC14411BED8D5BEBCA5AD9C3DEB86DA3B2BEDDEBCD8EACABCE0A826BCC1DC0DBDD58A13BEAFDEBFBD125192BCD4FA92BD38C2E5BD9D1504BE8D21F9BD9C1548BD933EBBBCDABE1EBDB435A03DB6EA51BDC76F49BE65C608BEC6EEEDBD0AD185BDA7E1F53B5DC809BE004A81BC40DB95BCBCFA8ABD39B24ABD70A526BBF5258CBCD330303D212588BDE06845BEF53623BE1DCABABC4BE9FEBD1C5DDCBD33B66EBD66FF12BD710E9F3C06E3843DF04E25BD5605163DB646423CDD649BBD8EE08DBD2C119BBD688D16BE9DEBD9BD56B26EBDD03593BCD36CA83C3BFF3FBC6A49863DCF3F1B3C1AF315BDC80FF13B33BBF93ABFAE553D1C9AFDBC0B2CF2BD60340ABD7FDF9ABBF612A63C67004E3D8299F93DCEA7163D05C7B83C3E98583DE53DF83D77ADDC3B1C94B13DF005773D2338DCBC324DB9BD38BB29BD7A1F83BD5B9DBEBAD2F2663C97EA58BDFE341CBD2E563DBDBD7EAC3DBCA7D3BC16C3613D1914093D371E5A3D53FD683CB1B72F3B521B09BDF7FD71BC88793DBDFAB0D63D3EC3DF3D64AA35BBA8983B3DECBE27BD917893BC8BE6DABCA8FABDBCA3EAFE3C9420B03C82C8033D018651BDAE0E17BDDB1324BD7DA1AC3D7F6F943DC79BAC3AA1D07ABD7C05613C359C04BD1DCA2F3D4B3FF1BC345011BC513B2BBB7789F7BDD02B603D76A85E3DA2497BBDEF9FB6BD0C0ED7BD5BC6C5BD6A1016BD73D8463DAEA0093D91448D3CF4D4703CA9A60BBC094A9DBC0C010C3C080E0CBB7FB038BD1238773DEBDDEE3CBFED723D3008233DF6BF523BA0C36ABDC95D91BD92AC313C97F876BCB670B3BD8B5EF63BFF35A0BC1E8E88BD58C3E9BC008B7FBCAC7025BDEF62A5BD07EB6EBD2AADC2BCE6DB40BCAA89D8BD44A6F83CEF093CBDE2E11ABE04DFDB398217253DA7B6F7BC25B499BB85A02CBDA791C2BDF7DE40BC40AC40BD4B20DCBB140345BD3741E8BCA7C3A3BD7959AF3CF74ED9BC822316BD2448EBBCCE16FABC7833F3BB48D80B3D6E2042BD1B95EC3CB3EB1C3D0CD4C53DA8250C3E0D5F643DF4F05B3DFFB91C3D149F32BD1D525B3DEC9D223DCA9EB03D19C9BBBC9549343AD2D50CBCA645013D1D6AE63C78F4F83D6AE9E33D172A8F3DB0DE153D5FB0AABDF39A773D3363013E5AE8A4BB22D4C73C24467DBC21AFD7BDFB5645BC3D7CE13C7023823DCD8EF73D56FB1C3EB223D63CCF5C96BD54779ABD5A8226BCE6FD5F3D041AE43CBEE11C3C867338BD6627DABD0B3C763AF0954E3DF8DE133EE88B1A3EDFAA063E4C35143D462B48BD745201BC577812BBF245B83C2A06EC3CC63C533D3AF3B43DE7E316BD6195A13C947FC03DE664053DB417853DF623E33D6A6032BCC3538C3C6624BDBC5612C73D87FF993DC235D33CD49DF33C14703FBB080BBFBD5423F3BDB71A46BDA57F58BD0867393DA3058C3CBBBB2DBD1972AC3D5FA5063DA3B4773A61AB7B3D1CB8893D0EA8543D36814A3D43EEC0BDB99D08BE608178BDB3B83EBEA911B93C0B7E96BD22FA983C037F693DC36500BD6FDA59BD235C16BD146BD93B83F109BD99735FBD935399BDE22C7ABE8C3B6ABEA8F880BE3D31B2BDE5AE4BBE6A17ADBCD3605DBC5F1072BD449DAEBDFD02F1BB0810FB3A9BE6B73D26A8723DA796F63C5AD3C6BD8C3295BDA9248CBD318250BDF1ED2ABE9803A9BD8B94253D2A2DFF3CAC9762BDE67A4DBD8E4298BDE3B594BCDEF827BDE930193D1B68D2BB53F38CBD11E4F9BD39FCD8BD3C2E00BD83B7603D07613D3C363DD1BC5AC918BDBF4380BB68EC5BBB1570E1BD2C0BEEBD610F03BEE4EBA7BD2DC24DBD1161A4BD845E4FBBF94AA8BBDE1166BDAE58C43CC04DB23CFEB20DBDEE7E71BDC8E221BDA2F390BD9D24D63CA1BC9F3DD002E73D7145113DA7A8BA3C9E6B33BDB0A1EFBDD575C53B8D798DBBF71085BC611157BD3045353CC9C63BBD1EC397BD85DE0ABD495FF8BDB592F1BB3C5D093DBC699BBCE3A6D4385C6FA3BD2CFEC6BCDAE8973BA990A5BB871B5FBD4D14633AFB856B3B66B1263C391B49BD434B0D3D1DB7EFBB635AFEBBE3F3263C01F8A73B7D30983CB10BA53DE13019BE3FC8DE3B127570BD151E1C3DF1239DBD53E98A3D101F143B16468CBB25AEA23D3A00A03DA895B63D6C30423D4137203DD3FEE33C74B0903DBEC36C3D6B1CD5BD196BA73C64B9CA3C008EE13CD55F7ABDCC2EF1BD88BCBD3B8898E73DF5A60D3DC14E993DDE45B03CE0B1653D8C3FF0BBBF7EA7BD9C1C153D2F3192BCB6C5263CE1FDEEBCE9D0BFBC48F36CBD03F61EBD3D04B63D83BBF73CC3E4173D8D40703D61819A3CBC5A18BE66B09BBDA4B0EB3CC135493DA41AB0BC874595BDCA1C01BE1FCC03BDA85D00BEDAF7E7BD374E773AD7CE49BCB6318CBCF26E0ABCDFE7243D2CA201BD07ED963D2EDE39BCD120A3BC7F61A1BCBA846ABDD10A71BDA2F475BD624A6CBC386882BD500368BC76BB1CBD3260863BF6E28F3D1FDA4A3C68244B3D7F5EDA3CF23B933DFEAB9B3CA466C23DB0F969BDED0690BD9401AABDAD2DF1BC986BC3BDAC97D0BD1EB242BA1437BF3D60B59FBDD3468F3D676764BAA7945ABC30B0633DA27A6D3B4730083D1FF9F2BC0A625ABD1E9DC7BCE22E66BD95EDB6BD77B822BC1667ED3D1223963BFC2091BD3A18973B30D3F03C390CE5B9827191BA1AC5403C48373A3D988A49BC9BDBB6BDC36055BDF91DB3BD0F0E753C86BC2B3D61BA313C5B285FBDB162B2BC474FB83D61D7AC3DC6D8203D4D68D43C5D7F683DEA0D9D3C442029BC780E7EBD9A5705BE309519BE014E4BBE9DA018BCBEFA0D3D42542BBE5BCE07BE0EEDB3BDC7F5F8BDBFF906BE462746BE25BA94BEA2257FBEEC7A83BEB1072EBE155C5ABD42777B3DD31F6F3D9FF8623D20F1A83D49DB8B3B16F1083E5807E83DB81D2B3CBF9DB83D977949BE8BD0CCBDEB1079BD16B953BD331E85BCDDA3883DBD95913D5A63FC3C78C2D63C1CE8F9BDD6A969BD4C36803DFC04C23BF9BA07BD92FA00BEAFBCF1BDB44614BE0DDED53CFC98823D231289BDD4CA76BCB36857BECEDF00BE616761BD21486DBD9B26BDBD401526BDE15E04BD3D1F96BA0853AD3CB31D84BDF3D8B4BCFCDBA2BD999952BE7D2AF53B6BC0FB3D7F95A0BDB368E1BDCC7D5D3B091C48BDCCD6D4BDF226FEBCA170913B72627DBD9837873D10E4D63C04DB64BD81E3953D230ADC3DCCDD07BE6691E83CDAF5A73C6237593C2C303CBD9EEBFDBCC78BA4BD35E561BD254D83BDFF7640BD213337BD55A589BD9E2B16BE6E391A3EF4EBBE3D0E468CBD7CCA933C2A96B63C3C2A953C073834BD4F3DF5BD25A105BEF1D931BEA37D66BD504E62BCAE0E71BC98931DBE4BF85DBD1DEBA2BD22C80CBE5A8FEABBC4A8AA3C476D183CE6467ABD632F2DBEAC71B1BD9CD915BEC7CF623C32240ABD23CE93BD385ACABDE61933BE7978123DED32D1BD44D8213DAD3E16BD21CC593C6F9027BEECBDACBD0EACD5BD91579EBD160FBD3CB1B8483D8804713C913C36BE9CCA01BE7712ABBD474C0CBE94909FBCA5C29EBD2B4297BD79D47EBC1C92ECBD0223BDBB003A4BBCA06D59BD88FA793D1B6BB7BCCED755BED02D87BC9345AFBDB23CB8BCE5469ABDADBA53BDF33358BDB3FD4EBDCE9E34BBD4D89F3D294C823D2FCCCDBBC862783DB51CC1BDAB71EBBD85BAC23C9AA73F3C9AA148BD585789BDDFCD47BD0F2A5FBC5EB582BB0A7048BCB95E623D2E0315BCC4278E3CF0C084BCED68D4BB02DA283D8EB89A3CD6AB29BEB888C3BA23B39DBC444EADBC309A823D83CE313DAFCD59BCAF7BA33DE51FE7BB360ECD3CCD571FBDC46330BCC4A21EBECC6E4ABDCE3B123DF7DCFBBD20252CBDBCB5E3BDD0D5B5BDFA4CED3B9CA644BD61BB86BDEE7EDBBD08C914BED1B4DEBD453B08BE72D9F7BB16BD563DBBE6CBBCCB6B03BE9B2F06BEADA92CBC3C2B42BC34F817BDD250F6BD2A582ABE4AFB08BCD09431BD5E12C9BD6B15333D1D61DE3D7E7F3CBC5D8706BDF3D28B3DBD707E3D31B60A3D0AD56B3DDF03743C4BB84C3D8AA1003D83B637BD1B001A3CF816283D02F9453D9926563C238005BD2B4AD0BCD235653D35B8C93B1E525F3D16C993BDA0212CBD7C70B6BC86FABD3D76F7C7BD59020CBDF92584BDEB9C263C42D056BD355CAEBC181F6D3CA2BC6EBDF2E191BDB96AA0BD508A0DBD968705BE1AE003BE93AC85BCEF1614BDC8B228BDB5D7A9BD9FC5833D9141643C4FDAF33C37B95B3CBBA089BC48B322BDFD55FABD0E4699BD7CD300BC241D1BBB7C0A2DBEDC163BBDA59FC8BCAFAAE7BCC16B1CBDECF40ABDE34126BD297BC13C0D30773DCF25AB3C3442D7BDE7EC943C2138B0BC8C68EFBDECC8F7BDCF917BBD2DF8ADBD07F8803CE1B3C63BB972063CA9BB0CBDB3ED20BD36DC41BC229AD6BCE425033C4444A43D48899A3D5D18173DA8A426BC83C671BDA57E17BDAE8EE83AD00F043E85A38DBDA2ED303D8E89AD3D441896BC8048963D38B1493ED5CBE13DC2F0FF3DA0EE393EAD9B333C837D66BCA1E54B3DEE7B7E3A611AD43D96F3F73CD9221E3C9A30273CF01B9B3C8DF6E93D0E63133E5023553E6ED1633E2128813D13EEA13CDA1EC13D0780173DC7EACE3B321E643D63E105BDA0B7903C76796F3D769B783DC221B53DB1420C3E72C2AA3D67A6503EA35BFD3CFD09E33C0BA6CB3D32183C3D1E13673DDF80433D9DA7473D07CBD7BC7AEF98BCBC62B33D8E41A2BCBB96EE3D4578023E3CF7D93D88CC0ABDBC1D1DBBF23060BCFE9DFABC31675A3D1F735E3DAC9DFDBC0F7D67BD40876CBD4FC548BD0D4621BD15D6ED3D7ACA323DD2ACFD3C7EB64EBDAB80023C45B7043DE1EADBBC60464CBC475E49BC4D2E6B3C0D4448BC9A929E3DBF0F603BE7C567BDB133CD3C7AA2CA3BEB41173CC039DEBDC62F93BD489872BDF6BDD3BC7FEC23BCC7A8553DFF54563D42307B3D849F073D58954E3DB7B42DBC78B6C2BDAE3B0D3DCF742BBE3042D8BD9BEE2ABDBCD084BDC010A7BDC4DF873DAD851FBD74A9A3BBB2F3123D0323093DF40954BA62DEB43B98454F3CE63103BB934E513C1EDCFDBD1A8B94BD217FAA3CCCCCCBBC19A1413D1132BF3CA1C35ABD5604CCBDB9C731BE3E0580BE730B49BE8D71BABDCBA6E13DD8B08FBD19BC26BE27FACF3CB45BA03DCA9FB73D7A40F03D25ABBCBD11D687BDFB99CE3CABA3953DDD8B583CADE83F3E6FD6D43DBA53183E38ABE6BBE896AEBDE0F4093E0C44463D0CC91A3E8515DC3C5D3608BD760545BE28ECFC3B78240F3D0197653D6E2DC83C6969AE3CD1E090BD1584FCBD6A2FF9BD0C658FBDF85C06BEE9B50A3DDB6213BE08AC83BD872D09BDCA962CBD409F80BD16BEC03C8896ABBC4CAD79BD9FACE9BC260205BE39A0DCBD0AAC36BE511111BEAC16D5BB1115EFBDC9AF32BD120F27BE8CB658BD4188D0BD40E479BDB00291BD78A44DBDEC2BAABBA5B74FBC9AB09BBD7AF890BD4D31D8BD5D99003DBE0DB23DB70812BE67C625BE44DDD7BDE672FCBDD44812BEDAC79DBD71987CBDA37500BCB97C713C920B84BD97D417BE43A927BEE08AF2BB721004BD1431473D1353C0BD9A4217BB3F654EBD4A7533BDB33B35BD83E390BD6A9988BD329D263DEC0FA9BBAEBD28BEF22EEDBDB20A89BCBDC1563B336461BAACE5C4BC7084AA3DF4D94EBC846B9C3CCDBF6EBD1FBFCDBC91A7D83CFD2C03BD86901DBD0CE50DBE453F13BDA58F4D3C15B4B1BD16E176BDBE0897BCC6F3D3BC4857B3BDEE27B0BD2031B4BDD60D243CD06EACBC2DA88B3C0528DEBDF94E16BE8D2A0EBE8AB8983DF5CFC53DA16217BE20F050BD20325DBC61725CBEDE86BCBD932E7EBD564E11BE2E1D85BD5719D1BDE4CCA6BC7A8C96BD4BA2A5BC1B0914BB2C4289BC3B5F963DB5D7CBBA1A3112BBE37321BC96DCEABDB9DF81BD6751AEBD0E2BEEBD27C4C6BD908CA1BDF8DCAC373846F6BB536B0ABD629065BAE5407A3D4A9B6D3D744325BC213EA1BD96C1C33CDB9AD13C505B88BCE3839ABC17BE5FBD8126D63CD5EF77BCF3170CBC749F8CBDEF6C93BDCFF096BC8D40D5BCD0391ABDA37FE03D26BC29BC80B9703A79487FBCC0CC203DC20A4BBD48A020BB9E52F9BC78B1BC3D857DF43CB4A3AB3C9525B8BD49E6153EF075E7BD722DC9BD07D0AEBDB3680CBD1882593D8E4D94BD4E1A3ABDEA93943CE5774FBEDB883039EE674ABE6C82E8BD0F4D2EBEF00ADDBD99FE9D3C28AFA03D6C53D83DD0FB953D0C23F93D0000AF3DBD7370BD982E1FBD04DAB03DA037BEBBCEEAD23DDEEBA0BB7DE2993DC0C12F3DAF16F43C070D973D8F559A3D6B2CF33C4F01C73D53446D3C9D78633DA089073EFE30AE3DC30BEF3D1AE82C3EB3FDD83D79957B3D17CA023C887C72BAF68A7A3C404C143D40095BBDEA97603D6F0A253D0B4B2ABCD65E863D16100F3EBE8CAF3DC043993DCED8A93A9F5B053C48C5933C6D94B83DBFC7D13D9677E53C6560F3BC29481DBD44A39BBD0AFB29BEF74FE33C49B2033D8CBE303DCE76E03D48A64EBD73B3B23D6EA78ABCA36EC23D47011A3DCDE2B63D25BE1D3D6D36A8BB181898BD281D023D38B257BD704C88BDD5AC48BD7A50CD3CC9506FBBC8B2613D04AB503D9394F83CD352393D7CA2443D1C3A5A3D54AA013EEA0B843D4D003B3D3F6E8D3D556497BD986532BD068C853D5EAC753DAF100A3E338080BC7AEC3A3DFB360D3D537B143D7836883DD7D50C3E503AAE3D48074D3C5637B3BD200B7B3C941B3BBDD0B1683DAE499B3D3A1CB13DF933FE3D8008E73B5FDF833DE971F03D8798A13C19AEDB3D62FB87BCE6DA08BC4D09C4BD29269E3C7B71863D069FCF3D482EB03C937E883DF317CD3CF0C2DA3D533A983D9FBE173EF84C523EA9975C3BFF073FBDF76EEF3AABFAB2BC7E9F5C3D26ECD9BCDA47113DAF40913C9800E0BB631A623DD5299E3CA18D0E3D4552653E14C8E13D24AB3BBD32CD313D74F80D3C5398A13D93C900BDA0C132BD46B2253B0BC0853BE57BD33DE4F0DB3C16B6C23D301CE13D010C323E1990DB3DBC10B43DE9EB86BC268B953CD294DBBB9767B5BD7B1B473C65F6EF3D3A579E3DB84025BBA935FB3D0F7EB33DA7A5BF3D1D78C63D7946FB3C6108DD3B1CDAD23A6093933D56B9DC3AB3304B3D0BB4E23CF202CF3DD219663D356B183EA43B2B3D7D26D53D0D66063E45DECC3D6338B33D6BE434BDCDEE083D9A33C6BC1F59B43CB93FF93C22EA1E3D9609453DA93E5E3D5A43B73DBFA9E53BB2DDBA3DCDCAB73DB07FA43DA36A9B3DBF04C5BC7E4B973C6586133D107B9B3D78CD823D5B6E0B3D085C103DADD3BD3D1F12A83D9C7B1B3DAB4A523DA34939BDA7B1DFBC15A3FCBD796F7EBD9A456FBDBD6E71BBC12DB7BC392593BDC803863BF8076DBDD075033D9CD63A3D82A99CBA85F831BD51B9E93C4995963DD9039FBC5B0D6CBDFF1C57BC06A2023E552FA33D7216633D9178B23D0DEA183DB3AE8D3DD076BEBD2B01A0BA524A9F3D3E6CAF3D1D02B2BDF60A70BD04593F3B5BF5873DFA36003D551F273E282DC63D0AD1723EF0F3F33D0739AD3DC85E83BD242EBF3CAE7E6D3C9FC43F3CA19FEE3C0049E2BD3DEFD6BBC681F4BC67A4AD3DDF9D003E2FB94F3E1020F13DCF180E3E80A9A73D412D67BDB6E985BDF59B56BD06372ABD7577483D037561BD2E1C9ABC7AB648BC7E263CBA12BA2F3D8C2E8A3D8514A6BD6613523C1ADD8FBD28B341BDE2B962BDDF31C23C93DC13BD6AE3EA3C7938BABDE716DDBDF90C6ABD44869CBBE74F033E09BEC9BC99ED653DC1569EBB4677DA3B858DC938392D243D687EACBCE100C73D18CB12BEA43CC2BD8687E2BDF9D0BD3BBE398E3D0A6A463D7BAACF3D63E1F13D5219413DF422F0BD6030093CBC18203D6FD854BD20F60BBB000601BE9D775FBCDA1A86BD9BF7873DE4DFF03D5F09753C0F38533C07565A3D871FCDBDD81893BD015E183D3DEE39BDC43D623D493A07BEAEEC4FBEA2109DBD80B78ABD1AB90ABD8BE7E43DC847CC3D4896C5BD7E972DBDE044ECBD4A8C53BD37BDA43D130727BC43EEA7BC98E5B1BD486C0BBE4A3186BD0D0612BD48E370BD7C90213EB23C893DBA3DDFBD784545BEC79F3FBE7E72983DF91A113D122E4E3D73A14B3C596CC2BC855DB83B5E339C3CE8150C3DB13F0E3D02EDFD3D6839C13D74AC863B04865ABBEC5226BDCBC35F3DD5942C3E5A98D0BCB79D533D104F5BBCD941C53C98B1F4BB12C7253CC4BC8A3D9F68E73D019D003DDB6486BABD68E63D3E5ABB3D1CBB0E3E8E69F63D0307333D802CC5BD3EE402BD9EE81CBCF0B9F63C4A61D23DB1C4D8BCDC75E33C3848F6BC9BE22A3D2E76B43D85DCC1BC3DDB9ABD5918EB3B095431BB2AC47FBD567627BE4DE0B0BD1F27313BBFF11DBCEE82733C8680E4BDED3579BDC074573D6D79163DB4A529BBE041D4BDC83C98BCFD9A503DE18B56BDD83C8D3DBD5B413D50D2D5BD8F29A7BDCB2C2A3C6407B33DEC723DBE804DADBDC9F7FCBD1536F33C420B9B3DCE1E73BD75A0713D8DF07D3DB365883D9554613D2DDCD1BC91D1C73D8B8F023E8BF5253D3C5F4E3C4A75F3BC8BC9023D63A0AB3DA3678EBD6D6A93BD10047A3D1217823DDA601B3E9197A53D1924903C58926F3D0CE96D3D7F15DA3C740B71BD787274BDB1190BBE940178BEF66B2DBE3F3485BD7A6A30BE54C74FBCB7282D3D322B443DCE63C3BD8FA524BA3B60DDBC0459D1BCF0DD02BD0AE331BECBFA28BE4F9325BEA87011BED96A1CBE69A50ABED242C33CA32780BD74EB74BBBB25C0BD3091373DEE979EBD37D92BBD334EA7BDDA5DAABDA5CD11BE6B35A6BDCDA1343D9B010BBE8CAB29BEE3ECC2BC2DCA34BBAC5E19BDEF0D9DBD0E34E73ACB9B5CBCD77D293C2928F2BDB73843BDDA7619BE5A07D7BD41568BBD57D73EBD0DA1433C4475BCBCE3649E3DA7F64EBDD6E780BDE715F9BDD3B206BC85455DBD092701BE814044BEF5D23DBD46CE433D45CEE93B5B6116BDE071313C1E12B83DE794E03DA4630CBEACF618BD846811BD6E2EA3BD9589A4BD5A5ABABD17D781BD0091A9BD600181BD6B9FF03CAD185E3D33B00F3DCCD6CB3CBA158EBDCB6718BD76D4883C996B33BD452C35BCE3C7373D86DF65BC9FDFCABDAA8B28BE766D8ABCD444823DEE8356BDE3DA73BCCADBF73A316C26BE094AC0BD9419993D38CDE0BC9C8E3E3C1D2DBEBCC1B5E2BD649C85BD04F52BBD8316B93D47D44D3C4FC664BD49EAA239D79FE1BC861212BD1908A03CFFF1BBBCFD236E3D048E8DBC606D94BC07B282BDAD50B73CBA812B3E0D6BC83D7236293D88EB863D3176FC3D06C816BCDE04703D1840903DCB70D53B0CBAC2BC39C2F43A54BABBBCB959C8BBF1D207BDC0DADB3D1B431C3D44135F3DAEF61D3C8680193D3A38B2BDD2DF92BB16AB253D124395BD17C5903B5F4E093DC845B63DEC12983C7ADE143D37C0B83D1D9DB53D782E923DF7EC05BE96672DBD2C7F54BCC0E03FBDF19682BDF03C9CBC16E403BEFCB599BDB4E43CBD708D553B455D2EBEDE680CBEE6104CBD83B525BE022D02BD60BB2A3DCAEF17BD46C79ABD436B40BDF2C9D0BCB8F08FBC72133EBD507CD53C07C4903D440E39BC17AC1F3DA9B011BDC93F27BCC839D7BD5E8C073C191F9B3C736256BD9C10F33C0FE75EBE248D11BE322B08BEE482DABDD7D9D7BD3D51D0BDE923B4BCFE5AFABC91B8883BD88839BEF73A59BE627FF2BC3D7FD53DDF81893DCC4F243D1F1599BD745B05BE6ADBA1BD2649DD3B8C4FF3BCD1EDAFBC07D5B53DEA4A823D39F7FFBDA67BB0BDCD61CBBD833E04BD36C187BDCC3495BD3DB9DDBA632184BD68CC9ABDF45102BDB7C1B5BDEC01C1BCCF9848BDF90BC5BD458565BD520B09BEA4BF98BDAB1F77BD583E273CF3CAB23DFB84A9BCBBBE0BBD18BD8ABD2A3A05BE36A443BC835139BD278AA9BD5B5576BC83C6B8BDD4B3BFBD36F97B3C6CBAFEBD7AE6BBBD4DEE84B99933C03B415926BDDCD51DBEA8918ABD315946BCE3B8F4BD4FF16EBDBA2C033DD8514E3C4AAE8ABCB879A0BDAE3D853DB8D6DC3D7B56FD3DD975A73D11DE2DBDF34802BEE50AE6BCB3EA48BD4217C5BD0EA822BE6E9D07BE906EB0BD2E8C073D7004A23D0FF4963C0FE0D6BD36F11E3E3AE9E73CB2A611BEDEE8A2BDA50674BDDB4E8CBDF4F115BEC23428BD734622BD07F1CEBDE6CAB3BCD6BE19BED81DC4BC696229BDA1ACA3BBA178D7BC66C937BE8A5812BE682D7BBD8664F6BD26B19EBDF15C82BD9FF8413C3F77623D0E6508BD79E383BDDFF261BE69AB743DA407113E2D7B853D2D2681BCBB1C9EBD974B3EBDB7B6B8BDD0B777BC6C46313DBE1F213D91B0EE3D8D93F93D0C46593D78B2AE3DE0E9343EFD6D063EA5DAB03DB703C53C97E74DBB55CA8BBC4EC2713C9F8AF83C3CB8263B50512B3DE82EEABC452BF93DDAF536BE284D013ED75B543BD1569F3DFAB8B8BD6EC8C5BD3D0F64BDE48414BD6754F7BCD5D8333D934803BD32C795BD6CD945BDFC92A0BDF2AEB0BD8CD18EBE2E113FBEDDD98CBDDC5D1EBDEBBF6BBC6541F2BDBB61AFBD7F6D9F3D587029BB008345B9B525F83DB1770ABE18623D3DEC63313D6729DBBD42F57BBC6C66163D4DBD37BD4FE43C3B7C75FA3B31BA52BD97FBC9BD4770633DFF6501BC7C5EA4BD5F7CDABDEAF15A3D26645D3D07950ABD9A0C06BD4B3246BAE978873D2136C9BC745E8FBC139B983DE0AAFBBC7A57C53DDF6037BB8EC2B1BBD445C43C61430CBD9B613E3D9376B6BC21A871BC678D8E3DC1B9223C783AF03D4915113E6CD30D3ED0AC753DCE1EE53D1577F73D7692313DF8760BBD71E4733D95FF673D2F94C93DB1C2D2B92C11503D002A6A3DDB4E773DD1EE243ED8F1443E8100E03D4A4AEC3D0EDE393CE6418C3D84F9883C2DBA96BD78ED5B3D667FA93D14DE47BBA115893D4294F0BC381C3EBC7989843D41EE033E0E18B13D2254FE3C3873BB3D36C9853D7256BC3DA62B84BD356DCABC493E053DAFA2D03D0AC5C73DB9F8D2BD1E4F00BEDD4F51BE6724A63CAC5EEB3C238313BD032D703D1D158A3D73C5213D48EA2D3D6F7A743D2A4BBFBB54D5DF3DDCED143DF4A9AF3BE9EEDEBDA69935BE0C1100BD9ECE8B3CA67D8F3D564D3F3DD6C8833D3F32D33D1CEF92BCAB032E3DB346E8BC493DA53D6BFDC3BCA798123D1480B43DDB7988BD5049263D4EB24D3D9DFB513DE5202A3D3558B93DC814EEBBE9AE6D3C461BC4BC72E3113DAEF1F53DBE0AB8BCE5FA82BC83E8263ED293B0BC75CE903D464A8A3D9A19B03CC20D65BC883562BD2BD289BD1163BC3DF38D783DE69A03BDBE7DE43D7A917D3D55CA833D1FC09A3DC908A83DBA359A3DB4483A3DD1C6E9BD9A3BADBCF6FA77BD0F8C70BD820CC13DF10A983C23AE163B29034C3DED8A68BDFFC6F6BC49FA883D0F145E3D410A093D61FDD2BD9D5FBFBD9F76993DAC49D93CA3BCBB3C9BBDB23CE8D60E3D6ED2FB39EF54AD3D662C013DE19E6B3DF2A1F0398E0D8F3D0C806FBDA55388BD5C9679BDA0C55E3D5B1293B941A1AB3D749F133DBE7885BBD8ECD13DED92663DDCC91D3E6BC08B3BFA05663D09F104BE57F3DBBD21EDEBBD33AF4DBDD89C2ABBE5269B3DA3F521BD6400EDBC5318073DAA91BC3CD571BA3CD952663D3CA9033E93FA59BCB43B833BE328713D23EE353DE646243DBD7DAC3DCDD30EBDA962653D023F98BBEC38FE3CC321A63D612F8A3DD178FFBC9DA8EB3DF63C8C3C7BA2AFBC8028493B6F5A673CDD3B8E3DD245C53D8330A83D9B9F903D6EF229BC40B6263C24DBD5BD72C09B3BCAC43C3EAF52D93D39158E3CCB99853D5E17523E9A1D32BE05E800BE97B5BDBDD4C699BD91DE63BC91215D3DB1F86EBDD32213BE76D8023E301AB13CC6CB893DA0A7383C596AB23DBE18B33D7A5BF4BD69B324BE8E0612BE04C647BE2CD457BE3A27C1BDFE67243DD277EEBDFCA1C6BB7A74AE3C159739BBD25B033CFC46953D46E80F3D8E4B913BD367933DEF642EBDC6A508BE87890CBD75E59ABD2A205D3D3000D4BB5A9F27BD1CEE383D076E0F3CE1E6C73CDB4B813CC3AC793D2B735C3D713B353CA0D0A13B9B844EBECB871C3CE91B4BBDED2778BDE058EE3B9FF1C4BBDEA222BD0A3B0A3D44092C3D877AB93D3EC89C3D6613A53C9449EDBC688D5BBDAFC349BCF5C2543D9065533DE8AF98BDCEC15BBD35DCA03C971638BCF874763CFF7771BD14715EBDBE4DDD3C797B98BC5AE893BCFD07593CAB6C633DC3C7173CF28DB23C8FA41EBCF27000BE2CD7AEBD9263B2BD0BFE4CBDE4619DBD370181BDC773AABD6E1788BC84FB203B90F09CBDD94E22BD146AEF3DDEF0983DDB4502BD69B1BCBDFECF9FBCDA98E4BDBA5BA63C5E6DDFBD2D9158BD4C493DBDC1FC02BD4A95FABCD45E14BDEF1479BDB1FD153E5D43D23DC9DA103C3DCFE0BC8483E0BCE41854BD40FF3B3DBC66D73A6072B1BC35DF8DBCDF503F3D76745E3CE15F71BC45E8BD3DCD98213E6051013E4B7C4F3D6D7F22BDB4065A3D4B40123D6E19B4BCACD44FBCE4C8823C11F0AF3D1691533C5993343DB997E23CDAC9BC3B89FE483D559F663CD09C8E3D856D653C30F49B3C22FB963DE5D15E3D3C014C3D7E44C03CD038513D9D152A3EE8858A3D3F8EBD3D88491F3DE2C690BCABE6023D02FF6B3DCC0349BD561EE7BB752139BD54661F3D7E1A083D5E85E4BCFDEBBE3D580C093A712C033C9130643D5ABFFABC2666853DAD827C3D480E6A3DEEABFFBAF956493C21E892BD64FE933D036A313D3AD8FF3BAD583A3D5A42003D81391FBD4A0B74BDC7BDFB3A21DE9BBC95AD4DBDDB094BBEB71A7CBEE5DF4ABE41C15ABD8D982DBD6CD040BD4A99CEBD990901BDD51FFABD4785B8BDA78819BE0629763D59C619BE37B137BD1301793B9F977EBD140B0DBCABDF00BD9995883D441F31BD9834B33C29CC13BD921FB8BD3764B93C388B60BBAC4F02BD09B1393DD06308BDC3E038BD595448BB51EC24BD2239CC3C9630B83C6D460B3CF937AABB95CD42BD08BC8CBD602288BD1EE87A3D998F2A3B0FFD19BC31B40F3DDA74253D9BE079BD02512DBC2588293D4755AA3D7534D43DB07D2B3C78F339BDD0E6973D64F535BD803F17BE4DA021BDD30C0B3D7B7C88BCF04A793D5D4788BD48B8CA3CB7D6493D4B00F23D5CF84A3D59228A3C7707193D9F30B4BDECA30BBE785342BED63D99BD1F51C3BC10E1933C49640A3DBD50C0BAFB6A3F3DECAA1D3EA2D98B3D4A4C973D7AFD1B3D02F6AB3DD8A8AA3BBE980CBD8F1E68BEF6A46FBD08AC1ABDE7118B3DF3A486BC9D80903D4BC7353E4F28033EF32A4F3E0C8E1E3E36A9023E7499BD3CF4FEF43DE713BDBD35EC37BE79626ABD2CCAB3BC649FC73CF2BCB5BAE060593D00747F3E0765323EB2198E3E703E7C3EF51CB03DE933DA3C49A9A4BC14CA57BA1B813C3B6921C13C2A4824BBE361CA3B3F9A983DA493BE3D05ECE83DE4F9823EE0156A3EBB3B4B3E64AFE4BD9E5B98BDB7F83CBD6921843D3E31C43D7D85013D5877003D99732F3C29E36D3DD359923C7B337C3CB00E5BBC5A8418BDFC70333CBC9F0DBB600C1EBDBBAABABB45D9113D20A1E03DFDAFE13DEB4AE23DC65C533BEFFE273C48B333BC83DF47BDFF3038BDDB2459BD994EC1BBCA051BBBA9AC863D14D100BD4688633CFA63AA3D990A143ED949CE3D3AE86BBA499E3E3CE85DF5BC04EC63BD36C7A3BDD6279CBD2A90E03B83CC31BD9BB51F3D7A8253BC2215E13C4103663D2251C53DC929AC3D651A04BCCB7DC3BCB2BB62BDA4C184BD6F7EB2BD1DEA06BD3B4D1DBD7611FFBA30083C3C437E513DDB04B23D3FA83E3D1FFBE53DBC9F4C3D6D6696BD423C69BC1D8B613CBD101ABD7F463FBD6DCA71BCFF44E9B863CAFBBC475596BC7A6B9C3B87ED6E3D3383913CC8C9FF3C984B973B10DFCE3C6EB93C3DABFAA33C1A03DABD3400D53BF56155BD8BF2E83C1C07973D840ECA3C56F38F3D09DA133DDF1214BBA34E1F3C012835BD3CBF57BC3F8AD33C92369BBB07780B3D97A69D3D1A6D223E7241B03DA6AC243D3C82043B0240CABD1AF429BEB1E6B53DAD8137BDD1582D3D7CBD87BDC07FC6BCF0EB9BBD389F523DB1F4BA3C0B01C23C98893D3CCF15FD3C4ED4DF3C4E8983BC26D327BECAB3D6BD2CC1EEBC2FA5633D13FD723B0789B3BC13D6CF3C5348623BD647663DB768E63C5968033D2B9F55BBCC6F3DBDD83736BD965260BE3E3C52BE7AD0C9BD26AFC03D56E55B3C5DCB27BDBD1921BDCC269BBD5E8374BD3637813C286D30BC8BEA903C652D2CBD2D8D353CB5C18E3C190ADC3D97B3933D081954BD37988ABD9628D6BDCE2D683C55240DBEE009FEBDEE098DBD4A8EA5BDF990D6BDA9D0B2BC8FA3E03C67C2E33DD3C3033E71CEC13C8A12B13C5A3B83BDD2DAD6BC688C0FBE3FC014BE12430ABE299B99BD55B3D7BD340081BDA55F343C82D13A3DDCB2EC3D2FAA1A3E20EECD3D845F4C3D56C10FBD347276BDD437F9BDCCFD1CBCC4BB463C10B8DABD512CC0BD442E37BE67948ABCE036A13D2A1C993D5E66E33DB3D813BCA14F103E84C6A73AA26EFABCC83315BA4B6997BD94784ABC931DACBD5EFCBABC4693E2BCE8FEC1BDD9661FBDF3C5053C1A078EBD074520BE77881B3CE66E163C0D9BB43D6030DB3C74E392BBB564193DDB6BAA3CCE5AA63BB29AECBA79BE7F3C6AB1B0BD4E682DBE825184BE8B608FBE33978C3C3F0DC83D2488823DD576813DD08D503B2C35B93CD694973D320E273D3D32AFBCF57AFFBD0FCEA6BD823654BE8E4723BE6BE131BEDF0D003CC6DC923DDBF5CFB97E608B3D9B8FE53C2587863DAC21933D4A872E3DD59C57BD3FC310BE25B7AEBDEEF1D9BDE31100BD561EC43DA1BB1FBDE44E17BD2F21FB3DE9CC65BBFEF766BBBB05823D871359BCD8E0E7BC7F1322BD92C7FBBDC73F2CBD67985D3C24BC903CAB9C38BAEB0C963D67F740BD71B2AA3D439B93BD0FC39F3D0BF42B3D1F80A2BDCC54CE3CC1EB2E3C1E510BBBD5CF953DC1E6963D536BEDBC708345BCA3DC5ABD535FA93D541EB3BD4B0C02BE2E6F22BDC7507FBDEB14A9BC303AF7BA431A51BC5DA042BDAB73B8BDC37D2CBDFE5872BDE5A2B7BC180610BBE390C9BCD07E143B5A66C0BD686F233C75DF893DBB91143E3DBFDD3C59B597BD35D9AF3DFB840FBD9ADE3ABB4CB61A3DEF978C3AA71269BD9711393C84F767BDEDEBF7BD5FCEC7BCA4B4153DF86CD73DC8AAC53C23E50BBD323ABD3DCBB7173DB81DADBD5454D1BD833AEEBB15E63B3D58F0543D9DD68ABD22B181BDC81ABABB9F20163DD2D9EC3CD4F1E53C97F70EBC66422D3DD5BCAB3DCFDC3D3D82AD07BD6A68EABD855EFEBDD934E53CD9A6D3BD25EE423C06A12FBD5A6F3F3A7A26433D46B1C33BB9A2013D70FCEA3D0F3E32BC73AF4FBB8C45B23CD0ED14BE650B07BECC5422BE6334D9BD920507BD90939DBBCE3A40BDA1C28EBBB541883CF834BF3D2888BA3C84EC843D0CAC89BD6B980DBD6A4A31BE6D4D8ABD75C389BB89C562BD241FE5BD07592FBDA8658EBD53C0A0BC0CC9593D2AA4C33DF57EE93CA7298FBC94AC2CBDE5DA33BE825C69BD56AC32BDA0CEB7BD5E4FEFBC86A4AABDAD1725BD388E88BD539005BC3C505C3D1757C0BDCA87B9BDA0C6FCBD9657D2BDA31241BE24C4BDBD14CA94BD799F82BCCBBD163DB63391BDCAE515BC09218BBDF34FDFBD61B6C4BD6D98D7BDB6452ABEB48540BE114BC3BD225120BE37DB07BD391D393E77441F3EA48D323D27F1493BAB09A73D95C2B3BD37D292BD85FBE1BD1F7B16BEEF8952BD847904BEC2EBA6BB683B7A3D7C7DCA3D3F8DDF3D60A9943DAEE226BB83B8583D52C2C2B90E3610BD8B0265BD1574B4BD59304CBDB3E1453CB82622BB44ADC03DC4F2193E579D973D23C2FC3DD45E813DA6BC003E72E78B3DDF714CBD11C10EBD5561E5BCCE67A2BD369DE43C322088BBB1C7C53DFC28323EBA62413EDECDBE3D8431093E9A34CEBD4B13673DC28C83BC1141293D0861CF3C0E82E4BB85B2A93BF68C4BBB9325C93D06A3653D00D08B3D69E74A3E2DD45C3D180DB53D6CCFD33C4F9EFF3C16C2B2BDFED6E4BC6C2D7C3CDF6E0B3DF24EC13C80E0133DFCA6F33B3A7EF83DBFD6223E967BE03D211D553DD221F53CFD951CBD978D73BB144D17BE548F00BEBDC60ABEEB5B6CBD8958B7BDD40E003D50F7893D00F083BD6DB9AABDA33637BE7BBAAEBD2802DDBDCE12B83CFAC9093C1876093DC23A833CA10185BC2F8F9DBC587F903D06CA393DEF8F27BD916BCF3DE94324BCE8F7E7BDFCE0FBBD74EF10BDDE13A43DC40E7C3C5C87CDBD96D8A6BC59D38E3DDB1FE33D2A843D3D085CD13D8E21453DA0FD633DED8FC3BAFC3488BCEDECA9BC9F4E35BE94D1E8BDB89716BDE16DA6BC9FD3113E239A243B87F56D3D54D239BBC10762BD9064893BC6C89DBCD399B73D20DBBF3DE759253C8F4B343CDB5F88BD9EB778BD43B037BD576CB13D32D4813C456CF93C22A396BDD5B33F3D1C46C1BC0AEAC53B981214BD0E6BA1BDD1DA09BE554FCDBDDD103FBD61D3C1BCC877673DE0B55BBDD274C6BCEA0A28BCA019843BB19CB7BD84F6C5BD6DE443BCC20D72BDA8535FBDCC838CBDA50752BD9B6FA1BDB12C8ABDD4CCEB3D439ACD3DBA401E3DEC5217BDF6A6313DC5BF3DBD276DE9BCAB00ECBD831720BEFF15B7BD3F18703D2F3BD2BDE89FE03C9BFA96BD5644C13D2B1EF03DAB5DCD3D4717023E905A043EA84D9B3D31B9623D23A664BD5E9DAB38CE7047BC5853F63CBBE2B03DDEFCF13D4DA49ABC606FFDBC5EF8203E41D4403E411CC43D0666E83D5057893D604C223DB374D03BD516753D1C13B0BC60994E3D346ED23DB9A8F43D7DF9FB3D05C3C73C42F9FD3CEF66A2BCDDE8AB3D04DB433D58B9393D22E0413D7569E8BC5219A33D5523D93BD6CD8A3DD3C2EE3DB93F9C3D59E5023B436C86BD49C9A6BC2539ADBD482F173B39435DBCEA90413D6749303DF9E1A33D769FF3BB0EBAA13D3103D83D84A3893D3EEC823BF492BA3D984F30BD8DEA5EBCAC073EBD882F29BDCA82DEBC7C0BB1BCEC92ABBCBB72713DD1A3683DBEBBC13D0045013E7170B93D74D7AFBB7047D93A738E45BD00E3413C02150CBD006580BD866204BD680B5F3DF45E7CBD43551D3D1EFC573DB3DF9B3DAF1A8C3DB866833DCD92353D1C6D3DBE603B92BE770F34BE8E2CB6BD9D73EFBC446A4BBCE963B53B7AD130BD70C1A93C84512A3DC14ADB3C684B153EC80370BA39DBF7BC28E5673D71D17D3CF51B9ABD2A2349BE4251A5BD617D00BEAEB4BCBDC5A444BE167C0ABE0895F5BC57C096BD64F354BD278614BDA9184F3D32F49E3932FCF33C53FF433D3D853B3DE797473D913921BDCE00EDBCE47DEA3A02764D3CA9BBCEBC1869DA3BF93AF1BCD8D409BD428C4FBD7EA534BD98EC6DBCE98C8FBD9C9129BCF98B093D3A4E03BD3FA5BA3C6A8B9FBC2D3E08BE53E0253BC96968BD11BB743D7FEC0ABD32FE1D3D3592843D2D0D84BDE8B074BDE7ABC43B3AB6F3BDF12200BE797702BE55762CBED08E03BE033684BC902723BD4623583D7D1A913D52E8683B2DA6F0BC9BC92B3D1AAB953C057AA3BC7433B2BD19291DBEA2A7C4BD417004BED3493DBECF9BD8BD68C338BE8486F3BB253B993CA52FAD3DF24F683DD9D18ABC4A72073D7AD8163E62809E3CCBBB13BD9FD76FBD53B274BC3EDA78BD7287F5BCC9CA46BDBA9E2A3D941194BC5E405B3DB389663D5B80B23BA6080FBC2E4635BDBFC917BEB25798BD2A260FBDC18FD93CC3AF8A3D0EBACF3C91AD133D41C6443CDB98203B5C8005BDBD608DBDDF8A8A3C79F2F7BC61F022BDFD830BBEF4828FBED475EABD9A769EBCB4A19B3C9297313DFDEA2F3D4F4E7CBC9268463DC212713D8DC23ABC1253943D527946BDECDB64BEE6F4F6BD0D7E02BE8E75AABD0D22D13D8FC32B3D4E09853DD811E43C4B3B233DEF97A9BD0DB2EEBC07BC443D625D293CFA1A00BD0772A33B741391BCC61FC83DDE921D3E1667B03DFC95D43D0AC0823D976A93BCE706CEBD793D00BD0B5345BD640C803D99762D3D8FEE623D50B1663D0661003ED2F1263ED02D0A3EBFD4A43D4F8DA6BBCDEAD9BCDC9D7EBDFF48A7BD2B860ABE577143BD826CCFBCCAEBE93A1D63BA3D516ABD3DCE36133EE83C1E3DAFC2A0BDF8BED4BDCC14E9BD43C097BD3F8F11BD34E528BD01221BBDC55EDEBA32EA813C51CD953DA3D9193E3B010F3D97A18D3CA459CFBD4A2CA0BDD07AA1BD8BA87ABD9F84CCBCFE5A4CBDF54BEDBD5A4BA2BD3A22693D8FE11A3D2F05183DF007DB3C99C56CBDCD6CB2BDD87E06BEB627EBBD8377C6BDB994BBBD1030C33DC78C3E3B46289EBD26D60FBDD93685BD1A95D0BC54C76DBDF32C3E3D402FB1BDACFCBEBD35D922BE756F44BE0FA22CBECF9A9ABDD56939BB5AD1B4BD8F2A99BDC8B9503D710E0F3D0125ABBD013E1E3E237A5B3C9D65073CE5C0DBBC324B01BC98B459BCEC332BBDD4116FBE2FF0BDBE330B59BE986A4DBE084536BE2CFA82BD0027CA3D740CD93DD9817E3DBD66A0B9BF73BB3C6F575FBC0899EE3D27F6C13D3610953C1A7ED5BD4DBA1CBE19F4DABD887A903D611E96BE067BA73D371F873D7A8CFEBCDCB70ABB397031370C44613D5B74763D4A7E13BD6F0475BD402078BD58325E3D4D889939625EBABD6B21193E9C46C83CAFC2443D0E010CBDB386903C63DF37BC55A6553D29C8E53C9007DEBC6951A8BCABFB8DBDBECF89BC1BE604BED46495BD963DE4BD3AE90C3E2F023D3CA654953C136877BC6345BDBBA963773D9A07A7BB96763F3D2F8360BDB11CD0BC32B720BC5E42D2BD3CD1693D98B3A9BE217CF4BDA30EB8BD3D0FDFBDCA7D2ABC6FA85ABD35945E3D3447273DBFE87BBD0E45353D79869C3C961FA63C86DB8EBC633D8BBEEDA4DCBE50C4FBBC8E0605BEA06983BD480359BCE356C7BD5B6C0F3D3B435D3D41ED7B3C1429043E578AE13DBEB434BD43936A3D19319EBE4E5F0ABD2014833C1F29C2BC04777BBDF68DB2BB56AC81BCDEADBF3C4E811C3D2F83473C2072E73C006D8BBCABE2883CFD7EE7BD39FD6DBB8B161C3E4DE1133E529C29BD6724723DD38ECC3ACAA4C239DE43003DEB202A3C823A793C5D3D863D43FB82BBB18724BDFC1CBEBD80ED0B3E81CB7E3B012D033D12D75D3CD110A13D240628BD5B80AABD7AD3CDBDB4E8A33D4A8BD73C8DFE093AC918603D9EF34FBDD3512F3C047E21BC6F0464BDF728B83D64574B3D87FED63DAA938B3CF320B2BBFCD92B3C57708C3D9CD3B43C5262BA3DEBA69BBCB905F6BCA777DEB94100953DAFE69ABECF0EAD3D18E84BBB46DC873C5E6D903C38F3273CE07BFBBB5E8BE83C6C5524BCF16569BB94820F3D573CCC3CF3465A3D447A6EBE8359F03D1E829E3B85E6B83D6579253D044A20BDC45F363DDE26043D31E81A3C2F7F963C5CC08C3DC85FA23DFB3DD53C47DC633CDA1C473D61042D3D09F64E3E6DE1C73D65EE673D1FA5B03D07D1B63D92E32B3E949B113EBB18A63DD984B53DCEAA093E9F4FC83D5BA83BBE794530BE033FDABD8D597EBDA5A281BDCAC4D7BCE91A9BBD421EB7BB6DE95F3DC07A013C2B9FB73D282F82BB6A33303D3B9190BC7E4683BD0123223CF26D673CC8821ABC01F674BC5F3B1F3DC24F10BDFA9562BD8E7A5F3DF21CAFBC1055B9BDC504F5BD9553A3BD266B99BD892057BD95A5A4BC7A72ACBDC1A305BCCC96A33C69D56ABDC93A7EBBAFCFAF3D7A8AB33B38BFF8BDC935A4BD98B757BDBAB800BE4C3928BE03B26EBC4B5DC6BD20D82CBD4E9F993A766760BD407B15BDB6BB82BCA25FC03D770E523D255CBA3D3B6932BD7936EEBDA75459BEC8807FBE32D1CDBD352537BDD269B5BC56F29EBB18CB71BDBC970DBC8D913F3E891C4E3EA683663E5B048B3D5F33203DFA0892BDC7A919BE9203D9BD5EEB8BBD6A880CBDDE4CCABCDB4592BD5403413CAD11183E0628193E910C573E37E1923E59D5183E8DC0F03DD45426BD3F4DF7BC1963A7BBA9EC56BDB12A66BD7199C63C190E31BDAD9C453C4F83823D6D5C673EA5771B3E10C91D3E28BD8D3D79262C3EA363AE3DED440F3EC7BD423D8C52603D35F7E63CAD1115BD655C2E3DDEA97DBDADDD05BD76525DBD4726EF3C2FCEBCBB573DB93C7AFFB63DA9BCB03DFDF3613CDC07BA3CA7BE57BD2CF95ABDF83D16BD96A88BBDA13646BDA73EDBBD6A2E52BC326191BD5757B93CDDE32B3DD53B983D6EBD9B3D07A919BD755B1EBD273BB7BD6F97F1BD223FD13BC6D083BD3AB224BC057BDEBCE24D87BCA0C05BBBE9F4273EBB93E43D794A8D3D1796273DA147B2BDB18BD8BD03A5EDBD360B95BDBF245B3DB1B83FBAE5CEC43CB4901BBD7F2B1CB788892A3D9E05833D6CBB393E8647EB3D15D0883D660C25BDB75E9CBD9FB633BD067CA9BBA2D603BC4460A8BD9830A0BBB38EE93B5A3FE73D6941F93DC4F8A73D3E0A923DDAFE44BC326E893C130443BDD40B28BDAE15813D82174FBDD56E293D52E034BD1C92FB3C102183BDD064B4BC8D9303BD73839DB93FF4273CB513EB3BBE3EF53C4F28F63C9E33D9BB4952DDBBB6A229BDC1D632BD2A01E63AE2B74FBDC868C03DB33AC33CFC3C033DECF46E3D22B7B43CC3E24BBC04771F3C56A1C83D3E410A3BF55DDCBCCB447BBDDC8FEFBCF5BDD33C0EA0983C2AAE423C1AAB173D8C0A5BBD3E17373CF4DC183C3B3CB93DAD32E43D2A8DCD3D7B170DBE6D0276BD30D2B9BCB09799BCDCC9E4BC6034903C868D783D83266DBC15F5973D594DBF3DB08B7C3C06460D3BCABDEABDEE5AABBD0981E2BD84EA95BD056EF13C0278C43C4F76883D65F8723DAAF6873D5F2B14BD9CDD02BA95E6A0BC64ECA63C8ED918BC8722E6BC7311D4BDA3BA2EBE48F912BD9F2AACBD21AF513DC729A8BCDECD1C3D7718E63C85E195BCDCEC9ABDF53EEABCB59FED3B9CA305BDE7E4FFBC48AE713DF0B78ABC6338B83DA16A15BD94ECE03C5DD7B7BB837CDB3A7D302ABD362785BD99BA90BD861828BD8E00013DCBDE043DC308723CDA5EFA3C3CB5D03D700B7CB9170EC1BD9109763B96C5D2BDCD67EEBC93578ABDA3CF5EBD8069C5BD6D4B9EBDBCC461BCFE1D6CBDF92286BD6BCF09BC2EA594BD7E4BD4BD2F598CBACC00C6BC84BDE5BD2D3F3BBE6B8162BEAEBABEBD1968E7BDE4442EBD27D295BC5797FEBDD0AD2FBEECFE4ABEA6748EBE5950C5BC3AD7E83C6C44B1BDF86516BD113A39BDE14523BE607C12BED8996DBD1871293CD447803CAAB20EBEDB09A4BDDA79AABD9DA71FBE7AD0D2BCC3D248BDAEDF85BDD2246B3D0F34E53B09235BBD5E32CFBD19D5BEBC988BF1BB60376B3DB888113D6E32D6BCDB2FB03CF6D86B3D267DC73C97F9FF3BE90AA6BD5350603D50BFA93C070797BDCD550BBCF81AABBB2145583CD74732BD849B8BBC5835C73DEE82343D2861ECBC7A48553CBCBA2E3D554362BB5154F4BCAC1C31BDEA161FBC1AC36ABD6E53F2BD7D3704BDCB0A14BD1B52BABD5DE22A3BB8F87ABC28C13D3D744A58BCF4AE35BDEFC4AFBDE878E83C51C98C3D57D2513DAA19F83CBED77CBD4D94FEBDFA3E24BE04161ABE6B2BAFBDE9C9D7BDB56B53BD9EA266BD0F784ABD137D9B3C5D12E2BCFFF2A93D84F49F3D19A59EBD5A8A833D21A6323DD857B5BDF1CBB9BD2CE9A4BDFA591DBD1D45B73CCCD5883D455489BDE59AB33A3B983EBD121D033DB0A3CB3D380D33BD73E6993AE8CD97BC4B4866BDAE2E3CBD91DB813C06551ABDABA610BD8DC92A3D0999A1BB4EF27CBC40CCDFBCBBF3F2BCC35989BC665468BD2478803BF31B263DD82856BD57B361BD052673BDADCCD2BC1C634BBD9499443CF52742BDAE7B5FBC1F7AE0BC5060043DF98A723DC1C2313D4E64DB3DF093363D46B1903DCCDBEF3DD74EC6BCEE7C24BDBE72DDBD894F88BDF8C12E3D2019B63C0748CA3C9676A03D23A7853D17D94B3DDF6F0FBB0EAC993D4D34613D7843FA3D8875A33D1867173DABA6FBBCDCAA22BD849DC9BD1AC5173D50836FBCD173883CF87497BDC693DF3C26BCC73DB7F720B90BE369BB21B0643D49780B3DD141CCBBE71E70BD55CE76BD309D07BD7AB21EBDA2C714BDCABFBBBB96A622BD15DA95BC2BED9A3A0B44833D6AF43C3D5F3306BDDC2729BDFB0E263A8D9F0EBE921409BE4766D1BD14F9B13C0047ABBA731E853C13AC0CBD0F1F063CF6B22A3D558ACBBD630C87BD2D45B0BD61BA79BD8DBEFBBDF30623BED4E5C83B2D4267BD9FF2DBBDBB9AAABD42E23CBD17984DBD49E7CCBCA84CD23B1AF6BDBD7E334BBC3F761B3D2DC3263CF2F10D3C63BC8FBC56D936BC67E95BBC9AD718BEE2730E3D32EE13BC19BD25BDEA4E81BDE5726F3D152B523DF7B66F3DB3BD8E3D4A2EC83D976BDE3D21BD88BA79CDF6BDAB6F4FBE43DF22BEEC68F03C966FB7BB8685D2BCD5926FBB257700BBF00D813DD775BC3DDA01983D3BF0943DD0B2333D4FEDAC3C872D64BEE8F4BCBD2FB744BBAB9E923A321FD1BC11C711BC14F3DE3DB84AC73A5A78963DADE9BF3DA924833D5ED50DBCBFF3F3BCE85DE5BD1DDBFDBDB353F9BD5F8F13BD0E550BBDF016AE3C1C8874BCB944D63D5856963D434358BD6D3198BCB8B641BA2FC479BD74DE66BD73A9FDBDD92788BC3758E5BD3CB173BCCC25B7BCF0BA933BED955D3CF03F6C3D13668B3DDBFB293D6C70553D11D0E03C9C3E6BBDCC8F7DBDBF06BFBDAA1792BDC12FBBBDBB8EBDBC2B96ED3DEFD4513D58B4413D1103CE3D1C3DD93DD551D0BBD1423C3D61E5A4BCF21D6E3BCF9ABFBD42553BBD9D9A6DBD5E0A9E3D3210473C5620B43C240C843C50954C3D1685023E00377C3D07A8343EF540BC3D87186EBCED2427BDF8537E3DAD8465BC887406BE8445C03C7A9F4FBDA2B6A03C7AFECABD4AD571BD3CC6B3BCCFA9D4BD6D28593B3C93CEBDC7A0A9BDF51E05BDF995A8BD651DE8BDF963F7BD53F40ABE7EC60E3A7A56E6BDC121943D101EB9BB92B9CF3D259AF93D414B323D755AA63DB90C8D3DB3492A3D9FB4B93DFAC411BD137915BC1C3622BD7871D3BC789E1D3D4B46243DA36411BC6693333D1E95453D3724503D6BE6D33CC06E403D4C2D8BBC6DFC793D2AD7FCBC94416CBCF344083D72E5FBBBE4DE093D14FF723C6454E03D835A9A3D4E2C743DE013E53D20338E3DB7588C3DA36D51BC972C7BBDA3AF94BD4D20B0BDFE7B10BD19EFDABC14201ABD3052B93D5BD9103E98DF023D86BFD23D605F233DAC0B943D7E2A5C3D720F963D6385AB3CFFA59CBD95CA0CBD979E0ABE1D19FBBD1493533D2BA3863D310ADE3DC774913DF5F5933DED82B53D83F5833DE68D903C68AB123EFB2D983D5D9E3F3DC3CE8EBDF5F127BE810D8DBEB2D7EABD1506203DC358913D37E4283C906CFBBCE6777D3D42EC0D3DC5EF7B3D15940B3E2F3DF83DAC4B28BD8713B4BD6173EFBD28007EBDBA9307BDCA71C73C34C2AEBC1A5599BC6B6C77BDEDF2B4BC2F8BF1BC80EAB33DB558853D3CDFAFBD5E9801BCFE2C03BDC8A8A33D9C279C3D8BD2893DA9F9643DA1904B3C3A9C163DAC902F3D2EC706BD331A57BB567EC4BD149F06BD7F392FBD9475E1BD2F7257BC92A7BEBD16D5D9BC09C4CFBC5FA0A03DB70AA1BCEF25943D4F47923D1E10B83D755AF63CEB85483D270CF23C6CB58E3CDBAFB1BBE4D7B7BD8140ECBD719A24BD6C19B03CE7DF18BD9FEBF53C538E053DFC693B3DD4DCD4BC76A8553DDD5C733B807F13BD3D81023B912A8E3AD0EDB7BDB42D65BD5053F4BD2AC3A73DFADB603D2983E73C9CAB2E3DC2F96E3C6D2FBA3DBA61D83C0677F53C69E08C3DA135273D8D24B43A7E4EA3BD22F019BE637CC33D7C079B3D4185253D2E83C33D5D77323E422B0E3E5504723DC1F0E13DC17E2B3E8DF0853C18413E3DA0430C3DFD5D06BD1EF4BCBD1E054FBD7DB486BC04DAB1BC52F9CD3D145C9EBD4DC164BD1ACC153D2AE106BC3EEA933D951208BD52D2803C9F2CF8BD800BC4BD543769BC89C491BD1E7B8CBB3377BABC2F72B2BC912DD6BC89BD73BB1EC68BBD3D00583CA4821CBD54A1E1BB86A1B6BCA580263CF45ED43B6A7A9EBD9ED1B63B0F9529BDE86364BCAD8A94BC44DF49BD4F11D0B9B6A7E1BC0CDC843D3365113D6D77C4BDA0E6C13B13D992BC83D4233DE809D6BCD35921BD21F1D5BC75912D3DE83D07BC5FA7EDBB75712D3C7C94BDBDC903B6BDB4480BBECC050EBE279E03BE70D1933C21FC9F3DD70F463BD3B2A23C4F1E093DB5B577BC6ED0423D31BCC9BD17BA08BEEC187FBEFEAAA6BE776506BEA0DCCCBCB72B2F3D139510BC9A68053DFE359C3D7BF995BC9632303D50F85E3D9A88BBBBBED15BBDFB7342BEA2CBA0BE118A2CBE402212BDD6DC8E3DB3CAFB3CA6DF063D1BFF123D528FA53DB673B5BD13D14ABDB973CFBCC896CA3DC6C642BC23D4AE3AAAE8B2BDAD15F4BDC47019BD555B153EB87AF73D87C3AA3C4113403DF1B0623D30F3233B23388C3C7477403DF88546BC4FE1D33D9621D43DF4A4053EFE14B3BD80C4133D8F9CC7BC2722CC3C30E7C13CD0E0093BEAF7173C7B49C33B69ABC13C7D9DA0BC75443CBD76A6503D16811C3CEA627FBD972B6CBE7CAF0CBEF295DFBDC83680BD4DE2AC3A0BF28B3C734ED43C4357BE3C26EE93BD1519D6397C1D6CBD13982BBEFD4B27BE21FF85BE108156BE2B6A4FBEB801B0BDB05D6ABDC5BD54BD4E9E13BDCAA1203D33AF803C190D7DBD6625DABCE51ADDBCB40F80BE948557BE8AA385BE6DB872BEAE3884BE4011B1BD27B71B3D05F05DBB09C77B3D0F7D7CBC770BB9BCC36EEBBC81C7DEBD71FA38BE0DAA7FBE61144DBE391993BE73888BBECA420DBED52E453C24E6283DDB340C3D4602283D5F2CA33D52D862BDFBE0AB3C11EDD5BD041A0BBE98693FBE7B09F7BDF16550BE474A2EBEBB4B4F3D87480EBC2355783D649F4F3CEA9EDE3C0C45ECBBD4E7AABC01B6053D847A0D3B488D9ABD7652EBBD4F83A1BDFE1DE2BD455DB3BC334717BCBDF68ABD21EBE6BB361C83BAC2784A3D1DDC5E3D9A26493DD363463DD6852FBBEC7D613C677CA1BD303CB6BD8B7018BD05096D3C2C69A5BBC8809CBD5530FFBCB4C7593C1460A1BD7F9B95BC80D48BBDDBEF08BE36DD0ABEDEED98BDBA1C53BE244B4ABE522905BEE88124BE8A0267BE7D64B4BD9B9A49BE41868BBE29486CBE19512FBE48195FBE4E42CEBD9B6D0CBEA35ED9BD70320EBE290E5ABE1C3ABCBCE70D85BD32CCAEBDF6DE5A3DA380FD3CB4B5B1BC3A4027BCDD2E3A3EDBAA9DBC7A2005BEC43992BD22D2F2BCE522033DC2E4D63CE604B43D311ACC3CD4D90B3D372A993D9E8B463CAF70D73D7894383EC321DD3D82B01A3C2ADA7EBC072E173E6C2426BDDCF26D3DC4C254BC725EC9BD5383B3BD326B9EBD2439CABD679F963CF787AC3DE837833D79AE0A3C5DF0723BD2ABAA3C1245063E2B4F843D4E96FC3B8E0803BEE25FA0BD335A91BD2B5BB0BDC6B1ACBA00536ABC12F19A3B6D0D9C3D4A5D3F3DA0B2073E1F8AF53C34683D3D2D080EBC6A9800BDB859E73C590FACBCBBF62FBD665D77BDB0CE453C6FEE63BD783C3B3CD11450BC225CD83CAEDB10BE2C0584BDA11FC73CBA97AD3D8960F23C4BFE1ABB43C6CD3D8F1A6DBDCD6D063D059C82BD9F3B493C1748A53D6C7E8EBD1B54FB3C68535EBE5D5A903C2F0927BD127B823CC7769B3DDECC1B3D87DF7F3CD2A2383D2ADA5ABD5BA0523C9DC5E7BC77980E3DAAB710BD2BC6633C8773CCBD1038263D469C413D53689E3DE9E553BD4B28E7BCA0545EBD9EAD9ABD77AAEF3C7878AE3C9D3E3A3BACF225BCCA3835BBAE7ACABDBE4689BD7610EC3D84E843BC2BB7DEBCEE66E1BCC52B40BD5F2699BD3915C5BCE91272BD16D0D53C1415093D968050BD8242D93C7BC0A1BC965B10BE35285EBD629ED13C37A5A1BD1E7B08BC6E39BEBD3AC380BD3D2D36BD8D06A9BDA5708DBD835C623D45F8C1BDFB6C2BBD008CC1BDFDABF2BD76ED0ABDCE4ECBBD5ACCA1BD5BD962BD8A0A82BD047835BD494960BBF8A6A6BC7BB2F3BCA7A761BD2AB38ABC64250ABD51CC33BCC91FE6BD36302CBD7E78D93CB551FBBD485302BD2D6150BD05F32FBDDB5300BD2D4401BD61CE89BA23749B3C0A022D3D67A8703B6E1F2B3D3FF3803D90B4F7BD49BACEBD6AB1B13D31630EBD251A3DBC94F7E83C4A2C1BBD4DA0B4BD15D168BCDAA64ABCCBB91ABEE11897BD0E29AFBD76A526BEBD991E3D411012BD23B512BCB92689BDB0FF9A3C501A3B3A88B96F3C688A26BC54C31EBDEAE37CBCB825F73C625E59BD22727ABD8653973CCD08A23C34CBA0BD47EE83BD949D2E3DEDE05A3C3FFCAFBD3E05103C5FB9C5BB17F96F3D88309E3C6427B4BC7CBA3D3DD5734FBD36AD77BDCF5A8EBD9935103D26A2273A6BC280BDB90CA33C243BBDBD798B59BD9F039B3D5FB1AF3C99961C3D09564A3D399F50BD49790A3D7922743C1455C53B4B2686BD3A1443BBA86B6EBB255BB9BDAD1195BD2C0ACBBD4D5517BE4FFA22BD8FF55CBD42EF313D10099FBD79EF52BD2843D03C5AAB59BD05124D3D152B16BD89D351BD42D478BC605E03BED892A0BEBE3774BE622A7FBE9D1F64BE94DF97BC1EF64EBD04A2163CA4AE6EBC0DA390BD7C7D4F3DD7FDA2BDD2E4BBBD10CB11BE306114BE91B961BE99DFD9BDF4D1A4BDECEAE0BDED02B4BD6453453D3A5DA03C8D5C533DA8F7F03CE50734BDD44DA0BD98A6E2BD775229BE9971E6BDA8FF03BEF99428BE60FE60BED3DAF7BD5D9B9BBDCE6937BD68B73CBD6F60D63BBBB2FBBBAB4EB8BDCB91D8BCCBD7BDBD27A8CBBD713654BD6C1DC1BD462765BD31C8C9BC0D914A3D05E1C53DA319BB3DCFFBC8BCD47C153C7B39A5BB9827BE3DF4AFB73D97B5503C6DFC523DCD47373B05E8AC3D2613C53D22A0123EDEB7FB3D52A0763DE2434EBDE967D2BB7A132CBD61C7493DB486E5BCE7B8B83CFEC7843D0C810D3DD8B0733D7E13AC3CF7322B3D32B61BBC36C857BCAB6348BBBBC59C3D2B75D2BD5CF010BD25156BBDC51A1ABDC8F1153D9E93853C78BB8B3D81EC82BC9793B4BCAEC39C3CF43369BD3990F73C0987653C92AC5BBCB529393DB909DC3C5327E23CCA9B8CBDC032A73B4B13013DF8B3C8BD011B35BCBF28CDBD985A14BEBE3C18BDC0219BBDB5FA303D92208FBD9DA897BC77B5B4BA2B9382BD31D100BD244DDFBD4A2CAABCD8E27FBCA9A681BDF7A4D2BDCC70A8BD7BB703BD1C7950BD4AE39A3C73D358BB33C97D3A580A86BD30A1F73C2012FB3BD789483DD7112EBDE0E23BBD2BA76B3D1B34D8BC42B7BD3B88D04D3D85EDBFBC3A8570BCCA9E89BC327C503DDF11243DC0F637BBDD71213DC26E38BB544946BD838B36BE7932F6BD1574D4BDA4F2EFBD183C41BD71D02DBDCEA3BE3C04BEB63CBE3D383D0668C13C7975D73C56A32F3CB296DABD98BB06BE39F81EBE653BC6BD4E06CABDB7DF1ABDAE4020BDC248663CA082A33D5050863DF85405BD80DD843DD15BB8BD913E16BD70F9713DA221FDBDFFDE4BBD764B59BD1957453D6C8FB03CC19F0A3E127A333E58D5433DF8A5913DB0B1D53DC4B7613D0A69C9BCADF42B3B886B7DBDDF401CBD1BBD37BDC688C03CC24E973D3A98893ED98C143E5061F53D1A5C403EC7DA6C3E75374E3D0B247D3D735B9D3DE3D176BAA2C22B3CD4CB283CB91B603D35D5DE3D874BCE3D54E4E33DF65AFC3D555E023EACD1043EB46BFC3D5969593DEAC3D2BBD65B01BD1F6C843CA9C3B63D836F6F3D7971993D32605D3BD39A94BDC9DB853C659B953DFC480B3EDC77CB3C324AF4BDF4A97ABB1D978ABCA249C33B5791A83D57CF48BC8D02A03D4F64CFBB22DB11BCDEA224BED7BFBE3C9F14A23D25AEE83D24C6033D9CA131BD4A76A5BDA177843D17C61B3D21A8DDBAF4EE203C829A483CDE96F3BCD2E868BD8B1F24BDBA4F033D5F3C0F3D30C4C73DAABF813D1543DABD3B921B3C8E6B4EBDF79BB63D5E4DEA3DBA06813C654485BC47E93FBD238A73BDE9CCEF3BF66B1A3DDADE5E3CB76DB4BDDD6B8ABD800237BD8113353D5F290D3D4D1D51BCF9D8A33BD1E8653C7A20A83C749990BD6CBCD7BBF49CC7BB384E863D4AB950BD2FC86F3C6EC562BC8D57AFBD42C2A8BD4DCD613D2C91933D333ED7BDF5B782BDA0AE9BBDB104953B7AF652BCF6539A3DE237B13DC1533B3D83AD22BBC6C041BCB2B543BC9CCBA13B316817BB1EC2F2BCD07BA0BDC171B3BDB71738BDE0A306BD8838153D8260B43DB863903D51CE903DFD7D0B3EF85D5A3D4BDDCB3CE541A73B8473283DE888813C211CAE3C9CA82A3C727501BDDA58B8BC713E20BD2291513CE9A8773D5A3C093E59E1303C46BFC93DF8506D3D590D2A3DDCA04BBD2979C6BC0583183D31FD8BBC004C2BBD551BDABCEFE9DEBD1844273D9879C7BC9DA64BBD12D6D4BD8202EC3D7EB9A23D7942EBBC359890BD312E833D5F105A3DBE868C3BABD72ABE66D942BD7E7C67BD5E62D8BD9FDA4DBD0E62FDBDA94E66BD0203A33C531685BD1B2B623D49C8D6BC0062BD3B6E230A3C8EF6F7BD78418CBD27C75CBD0F8BE2BA12C9433D14E4B3BD1DEF58BDD0487FBC4EB7BB3D33A444BDD17A06BD580A573B7BAF50BD99540CBC8E92ADBD17D6553CB3A6E63ABCFA30BC7365EC3C55AE1F3D848F99BD877E8FBC10DB413DB3960D3DC82D683D900E843D94ED633C644523BD21348D3D1154B93D05EE893D4EA1B7BB7F1DB2BD89060BBEADF7CBBDDE894EBE3282E8BD8F860D3DFF4A083E87E624BCE3CFAD3C0300C0BCBFD5093D4FA1DC3D279A4A3D9D687ABCD3F6EDBD283408BDC6368ABD87DCC1BDA3CE4DBEA98BD03B902F0A3EFD42BF3DB19988BC3C2E893D87A2953C0B9D78BB69D715BD468490BD252020BEBBD9AB3C267A83BD51D03BBD733D13BE5714F7BC332D7D3CB71518BE17F7A73B00C34C3DF6A1CF3C8A94263D92F9B7BD84ACF2BC6F0E253D4CD4A73C0B0D1A3C4CCC58BDD077943C99E807BC4290BF3DEBF4AF3C35F59FBD11C6183C2817133D7BB2DBBBCB5D173DB1BA3F3DF9AFF53D39BE4F3DC783453C9B4A16BD835E5F3DCD919E3D77FE0B3DE91DD7BD7CE4B9BC87069EBC16C51D3B14E6F23C3FFD383D4CD015BC02F0153DD58085BB06EBE63CE25D313D8DF702BCBBF76A3DD8DA183C6C7930BD7E16363DC815CB3CBD2CEEBC4BE9EBBCFD65D3BDA1A9ED3C44A731BD3BC7E83A5850033D0D98583C1CCDB13D3120063D9DF0923D1C6943BD74E9443D4FF1E93C3B248CBDB8655BBC8F54EDBD3411ABBDD6E0A5BDFF7EA33D2AB55C3D6256E63C4924AE3D9FD9A63C75AAF7BD5ACE6DBDA94E58BD64701E3D7FE889BD5B5211BC626053BD77B1E5BD0668C7BDC46D723C17BB91BD7C0EE83C48D6093DEED8AD3D4F0633BCA16936BC1DEF31BA63FA31BD975B9FBC2C45B2BD6FA90CBD6F1601BDEDC9703CC2C350BC32ADBDBC8647AE3C7ED02EBCD94A95BC65A79FBC89B6153CEB9ECC3C1EE2D83D48A285BCE90C26BCDD8495BDECE284BD3114893C2583D9BD79FF84BCFF3EECBD4590BABDF3AE3ABEE242453D912FD5BBE6D598BD96DED4BD0BE76ABDA6170DBEFED53ABEB8ACCFBD87B845BEDA8A10BE1FF1B5BD2C981EBEEF0558BE6AB2D7BD89AAE8BD3D8137BDA75CE1BD380F1ABE920035BE51354CBE98B7A1BDE59137BE05A731BEC6518DBC8E02C7BD41E59EBDD555EEBD4200083DBE6ACE3CBC52F0BC300712BEA7B117BE59E43ABDFBA5703CB6CEB2BC316DEABDF1EA6BBD475E86BDF73D9DBD2BEEC5BD5A7DC1BA6DE59C3D48B0A43D3E0B553B1DB01ABE22769B3B3673CDBC4B9A8ABDF82D75BD47A3D2BD338FA6BD0A30ADBDAFD783BD77B031BD8A1EED3C59F9883D3E88F13CF133C83DEF0A6CBD7BB7AC3DAA69863BD785ECBDDBBCA0BD6A0BD0BC357328BC44CB0CBEC58ACEBD10B7503C3DC9913D81F5513CD0A4AB3CC888FE3C8E45D53CCF7CBCBDAF1FEDBDEB91653D54B27FBC738BC03CE66181BCB81B4DBDFEBFD5BD02A77ABDA771553DE9E1803D05A31FBDA4ED89BA77F45EBD11CFBBBCEB52F5BB3BF0BD3C102F3DBDCEE1853CC000953DEE49FABCE12E5FBDFC817E3CC276F53D92EF4C3DC03A0D3DB0C19BBD9AFC9E3CE36E5F3D02AE223C1EAF8DBD345B943B9D678E3D73CB2C3CDCD1AD3B020C913A7212903DFDEE013E32B9283D6519C03C1BCF463CC1C9DC3C7025ADBD18B454BD7ECFEA3CF650F83CB55DBB3C0E54E93CE4E21F3D2B77AF3D1903293D4C008F3D6B151A3D42CB7A3DFDBDFFBC7D5B8F3D5A43BB3DC3B9C4BBF3CB9FBC4BE0853C623B823C3247A33CAA7F8A3B5F04953DB398913C2BF620BDDC62123C449626BDBBC288BD6123BA3B6189C93DC6EB59BC945EFE3C8F0D8BBD7265BDBDD39BBCBD2A184CBD13AB75BD1E62A7BD9865E7BD74DAC13B0115063DFC92A9BDFC7D11BE36954EBE2ADC96BD61F2B0BC0A5138BD169475BD5D7DF3BCE1C7DABDF173AFBD016D84BDC90C953D7CEEC23D3297C7BCC34890BD8A5FF1BDF272D23DA5F4D4BC242187BC968FA3BDEA4677BDDDB065BD9A0D36BC59AAAA3CE270F7BCD984203D8715393C91FAAB3DD9869BBD05123D3BB8D2D53D7CE263BB4EED0BBEB56AD4BD72894EBDDB855BBCBB6D1ABDCFAD98BD3349D63B07BFAC3B8162353DC70296BD84AB84BA05684B3C206F14BBE94B823DFDB12EBD261952BDE447223D15D0353DB8B8173D7C1A84BD20B9273DF2E7203CB129813D6FB3773C26DB29BD7FA3C8BCBA49413C8075E1BC152DFE3CAC386FBD97459F3CA189063D239B1F3DD3F8D43CE80F3C3DE7AB6B3DE0CCFF3C741679BDBBA6F5BC2E56663D5930D33C45B63F3D8A4252BDFC94CA3DDE880B3E1F0C273E89F3123E2C09EA3D7816463DD774EE3CCF6E3ABC3D15DC3C1FC5ACBBE54975BCEBA87C3D9F04F6BC3F07993CC9660A3E2FE37E3E39B1713E79908E3EB2166E3EF9816C3EA3CDD63DF301E83C4518223D224EC33CA0F2D73BE1A922BD357E20BD10C79D3D08E4613E27404F3E0D38463E3705633EFFFF4E3EE2490C3E350BC23DBE8E8D3D534623BD76F6973C5152543DFD9809BD1E572B3D68E7DD3C5F17103EE140153E31F5C63DF699583EC7F81E3D796B0D3EB0E06B3D6150D63BF6BA35BCA04467BDB1CE88BD8CCA803D6B1C2BBE8AD5C6BD2AA1093D42335A3DF98DC63D210716BD4A11C93C18FE283D8126263B6F3BD73D479A8DBDDF22E7BC83621A3D7B5797BC5E4D95BD4741D3BDEEDA873C2FE7A23B94E744BC7A4A0EBE2DDA803CA0CA8A3C9FD7073DDA3BA3BC7C7099BDEB5238BDD1C07BBDC6AD9A3CC99D47BDBAC6BDBDFEF80F3DD56AABBDFA2AC9BD4F76D2BD7056CF3C719A503CC797DF3CC10844BCB1C389BC8757A6BC6204433DCDAA6B3D7C46A63D34A956BDC4EAC0BC5553A0BD9242103DE2D3523A89B364BC039B83BDBC423BBDD454B73DD33E22BD04DD91BDE66F2BBCA942EFBC98BC093D024E75BDE55D063E7B86FC3D3542EE3D3AF47F3C1F98693D4D4624BD866796BDD21ECE3C3A8A633D931D23BDE28C6A3DAD9F953CC4522E3BA905593CB5B2633D9AA10D3D7E03283E4B7D823D6D5E553D0A7B863C36BADD3A31F50FBDA37131BD1E7AA43CDD41283C02A341BDD232083D5019D0BB07C3553DCB5FC73D0D1BCE3D6B508F3C75DD54BBF797F7BC2CB386BD9A31B03A892A573D2FDC3DBD89CA1F3D6C70443D9E1929BD0D3BA63D222E123D4C0A283D24D9BF3BC0656B3DA35217BD916FD23CB7BC9FBD0B2150BD8DD5C73C0CAC123DFE7279BD50EF033CBC86E5BDA17892BDDBB6AEBD9490D6BDF0D517BE201A833DE922B6BD2531A3BD58D2F83C6836D2BDFA4422BEC2CB38BE27F0833D476468BD3FF20CBE6539E1BC837437BC79A40C3BFDE1CD3D78389B3D01A50A3EC2FD0B3E043CDF3D26230F3EAA57EB3DF5B9033E03B7A5BD824D093E36C511BDF811ADBCF08D3A3D540A57BD0740CEBC70F50BBDF8631C3CEF2433BDB19907BC6124D03DCC67133E20F06B3DC7F48EBECCA88CBD9AD4C7BC08126FBC3650D63CF815B3BDB514BDBD49A73E3DB4CC08BCCF9723BD26F884BDE75B8D3BD8202E3D1F2000BC05FD85BE50C2D93B73E05ABD192BF03DFA1C9FBD620802BD8A92A0BD94F62FBD9F6C2B3DFD93FDBC91A40A3D170B18BD0DB0253DD0953DBCF1FD34BE026B1BBC8364003D5B9AEC3A571BD5BC9B8AA9BD678D56BD0FA49DBA32D2523D9458CEBDB359E6BCDC2364BD29E6E93D9F95163E404C07BECD09B0BD38ED1B3C7BBAA03C49E2943DF5B003BD8ED9C7BC22EDFFBC29D90A3D1C4BC8BD8762DCBD870C2ABCA0F6DE3D18A6473E69870CBE48C1E6BCAD9D5B3C9291CB3C0DAA07BC4D271DBDD035A03C7D2D2B3D2C40273CEB6D41BD23CBCCBD9C85CFBDD91FC2BD74C1533CBCBBC4BD9CF0123D4C69E4BCA3F01ABD3BAE75BCDC3043BCF5834F390A3D063D30CF3CBD1C5545BD0AB66FBD26C385BDA0251D3D543D323C611BBFBD98ACD2BC27E483397498DF3CB6F54BBC259D12BD68668FBDAB0DC1BC41EF8FBD3DD4E7BC36E484BB0C82D6BA5453423D7AAAC5BDA31A33BEC59D89BD8F0F75BD6D0F093DBA8CF03A27DB5C3CEBC15CBD3F45D93CECA47ABD1E2F0E3D69962E3D99BC3DBDEE096CBC35E1DE3D6E349E3D0DD6343D99F5D4BC9678553D40428B3D2F71A73C862F2DBDCC1053B8953A2EBB922E153D0947B13CE682243D65F121BDE70BACBDE128703C8158FEBC9E4B56BDE53A8B3C69D2283D908EDC3D0715DEBCA28A3CBD3FA0BE3C9F14F73BD93737BCFBC12C3CAC23FD3D72900A3C75E6E53C544F00BEB8ACEABD17F0123D3FFDA9BBD8CBF53C8B8F4B3DBF381F3D5BB61B3E2831C43DC8F3D83D499A2A3E47D4283E8805E3BD4A2C5A3D2E1EBB3DB7E4963DB5A4883D55ADD73CFDD55F3D8A52A23D6BFFB03D7F10003E8EE6343C2640A2BB2DD0973C41D48FBCCE049CBCE8C3543D05E2C9BCDFC74D3DE909543DD8B4753D5EFD17BD023D6EBBA5D2F3BA649071BD7337123D7C43B13D2D1D653D24C31F3D8464943C7AC05F3D99D9D13D1F7C9E3DBC5E833D283F6BBDA63B95BCD8FCD4BD419357BD454105BC4543AE3DE0FC1B3EC879AC3D9DACB43C4286B93DE0B8C53A184EDEBB8597FB3C5ACCC6BD9E4E6CBE0858EABC750E443D06F9E13DC89A0F3E2DD6513EE6CA8B3E8B62B93D8FAC013D6C2251BD9E52103DCD01843D0B7F0CBE973F3EBEBF613EBE9C9B47BEF7EE613CEB53B43D1E076F3EA665953E28C2643EC089453EF38BA73D2D8B253B63E4A03D0D116B3D6EB4EDBD950813BE03E020BE587E8FBD5AA28B3C2000BD3D7CED003E875F973E5667143EC1EA2C3E09A3FA3D0316583DD92F19BB8E2CE43C15D016BD09D554BDB36CF5BD89ADEFBC0AD2733D64F5583D42CDEF3D10F00E3ED3F9873DE201013EB9FC213E2DFBB13D212F263C3981C23CB8DA0E3DBE3FACBC609E403D330B22BDF21CB13D9BC3A73CA3BB603DBF0A043DE965C5BDD7B7B9BD3F4DFDBD28E6D6BC9E73F13C6211DC3DFA161A3EBB02B53D7AE7193EFA54DF3D250E8A3D8688673DA43E8C3C2BB107BDEE1B03BED58B1DBE1EE736BC63DC3B3CFFE27A3D7C8B403D8722A33D55EAED3DCA5A143EA59B2F3E2FD88B3D8C51AB3C64A318BD17FAE5BD7F9818BDF9940ABE793B58BD26D0B5BBD283D03C4021FD3D5380863D0F46103EC4A70D3E3E042F3E532C2F3EFE921D3E3F23213D94188C3B27018F3C487AABBD1F3690BC6B5CA63D5452BF3D94B7B5BABFE6F93DAC12A93D38CD563CA1321B3E3C668D3DD41AF43CC10294BCDCFA813CACCDA03C129ABABC96C7553DCA21673CC601D9BBB9F99D3D124FDD3C1338D93CA2AD243AB4E4963CCE8F1C3D2AD2653D905F203D7B8D4D3D54F730BD970409BC109F5F3DE79C8B3DC4A229BC1FB2913D9DFDC43DF93D9F3D7733A6BB3FD2BA3D840FB33DE173B43D6509693DCCD9683DA01927BD82C716BC6841E23D062F2BBB989988BD6F8E373DC016F93CF352A83C46E3DEBCA60016BD79AF853D770DA93C0915E03DE2B5653D8CD9AABDC1F6ABBD8E385E3DC5803F3D08656E3DDB204DBCDC340EBD30791ABCA8F1683CA6BD6EBDB10FEDBC0A5E743C1A1E343D9A4093BBD0EFFEBC077E183C024A953BC65C00BC5C278DBCEB458E3D77A6E43AFEE0E13C08D88C3CCF0882BD78A4073D0E9AA3BCB051323C630C173D268D5A3DD524563CDDE74ABDC7E512BD17DD50BD5766BC3BEA67093C7D128B3D5EECBBBC7538C4BC71EE3A3B3E9C6BBD6BF632BE78AA97BEF78B33BEA0BA4D3CCFE97DBD868AACBB5E91EEBD184D023DBD8197BC7863A63DA09B443D8165C73D15F580BCED4BC3BD00F076BECE049BBE74D967BE955E1ABE077E39BAF4427CBC121BBDBD229C363DAFEFF53CE435663DDDA239BD5C32B33DEA5DC93CFEA96BBD72712FBE58258DBEF7AC74BE792D55BE53E290BDC49C903DFB42ADBD9C810F3D1ABE57BDE1A2A0BDA192E9BC0C31023D9769423DE65E3EBD345AC4BD783BCCBDA41706BE1A8608BE2DBBFF3B8594843D9D19A1BDD335CBBD771708BDCFB092BD07E43FBD3F52253DAFFC293D08D72D3D818EBBBC9529CFBCB31DC9BD519AF5BD0F1634BEBBA0533D07CBFCBC367632BD707F9FBD13D182BD479F00BDCEC707BD2A2B7E3B53FDB33D024E653D16238A3D9733B73D94AFB63D473C49BD322F29BC7B45DDBD86F888BD4A86CBBD196E5EBDF3FA0CBE2F93FFBC60E93B3D7FB06ABB4784813DBA6B67BA9586D43DA8CCAD3DD1BC85BD651011BD7A96443D51A920BD8BFB0DBC73F048BD8A54A3BDC7E04BBD53D4AEBD4B0CBFBC095B84BD906D243D3EFAFE3C43DF2F3E687A323D09EF36BD416901BBCAA56CBDC99147BD07B60EBD45FE25BD6C2CFEBD76130CBDBC9FCDBD2140DABD529C31BD434B53BC7243143EA9F8863DFB59053D8ADDD33C58E78FBC9A2A0BBDD8BD72BCB6CCC4BC7E2FCB3C1A13CBBC27821BBD86858FBD270DC4BD39381EBA198F0A3EB8DCF13C81811DBD45FD413DB28AF7BD203CD4BDCCBAA93D75F1A03CFA1F07BD2C722F3D5C7890BCE81EC0BB7BDBD1BDB3B0AB3AFB9532BDAD9FB53C16B0043D7C4F87BCE6FB30BD24A4973C1DE50F3D8BD044BDD64B3BBCFDED993C67A5793D371004BDD3C300BDF262FEBD34F10D3D3871783DAD7EC03A2E027A3C6CECA7BD6A5FD9BD6765EEBC70DD263D99FF8EBD0014D3BD388B92BC7F4EB2BD5398E2BD914BD5BB3F8491BD71413FBA9C4754BD71D2073CCA911F3CD4D2E43C49CC6F3C61565BBC6EB058BD8393F9BC4293BC3CE6CA61BDF083A9BCF2C8EFBCF205E13D15236E3D122D213D049E9BBDF9B765BD8BBD243CC991393CA3A8853C222CC4BC7C3C26BD1CDE493DECF5843D6E36CC3CA2416C3C2709B23D03F10ABDA9EDAD3C5BDA53BD9BD76DBDB2B60B3D148DAABCFB324E3D2EF73A3C366ECD3C6471D43D77D0CE3D9E03183EB5E89F3D638AE43D38DFDB3B85781ABCD81C02BEED23E23BF9E53F3DE112733D16C0603DF39CA3BBD906073D0743633D950D473EF593353EDC77213E97E4193E7E7B9E3D97DAE03D91D2CABDD919B03CB8AA6A3D6987A43DE2AD3A3D5A96553D8A15363DE4AB723DE9BE003EC236303EBC34F03DB291EBBC2415143CDEDEC13D4352A6BCFFC11C3A6A57F3BC07A809BDD54A193E8B42B33B1BE9253DEC679B3CFE9E2B3C92D98A3C214485BD8E38233DBC3C1639ED37ABBDBBC0F9BD7AD4E13DCD4F803DF5AE3BBC3EB0BE3D27C0753D21E0E6BBBEF6DF3CA6363EBC67D4B6BC6329573B682A96BC61E485BD1DD0F33DD72335BDC49A5D3D79DDA73DCEA5D73B871E5D3D5B839A3C0AF27BBD043615BDAB947FBDDDA6A4BDF9A54DBDC4CEBEBDAC20803D8D78B1BC6AB51B3D3C52523C22B818BD3E75D83D0FDE383CEDD4D33BE670983C7A0CC9BD5984A4BD1BCCD0BD1894BCBB83968CBDF2F92F3CEB0DBE3C7EAD10BD99C71C3CF5E2D43C7912163D6A62783D83E5933DB58A1D3DC0B21EBC8263BCBC95BD8EBDEB9E21BD0C40AC3DB578B03D20849C3D1CD75F3D4C15A23DFD31A9BC9BF0AB3D20C8823DEB8F863D89C020BD8518F3BC9B01EABB2E9A133D5890C5BD88B8D9BDB7D3CDBD6874583DE684923DE1E9943D8AACE8BC1EF138BD315E3C3D937E683BEB1C30BD27D1EDBC0600E6BC0DBB3F3D9E53513C42FB163D146A6F3D45E3103EC7CC8CBD7975AD3C6CB39A3CFF3BBABD1A0BD5BDF43580BD3DEFD6BDAE24F0BD9E2F11BD4F4CAABCBB4C713DE91C6DBD5DC0BFBD028DA1BD31814EBD29E638BDBAA20DBDE66322BD984B5FBDC16A9EBDC2CEA5BCBD4E233C5AFB1F3D09BAF03DA7A1CC3D435BB1BCC3359DBB7DFE963D908D17BD1A6ABDBD3F2317BE944EA5BD59CAFEBA525944BD66A845BD955E303D254E89BC2D30D23C7C47BA3D2441C53D71ED6B3DA943E03CE50117BE0EA41BBDD75EE8BD51DA95BD05608F3DFEFD273C6E8754BC9A026D3DD04EB23D62935A3D07726F3D5911263E1AFFA33DE58A433D67A82CBE4F3188BD30D133BE2A8109BDE61C37BD4C2534BB705D1C3DBFB688BCC3A469BC2A843F3D6223123E585EA73DEF75043E8BFFA93D8D2625BE998E8CBDB04324BE79B8E1BD999D91BDFF46B63C7894E23C35D82A3C33D0143CDA548FBDC0EE843A4BA0B7BD13E2A83D28F9173E1F6CD6BD83AFC4BD21A4E63BCAAC8C3CCF8DEFBC897CB53C7B34213D50C90F3DF515053DE9ADABBCD9AD8EBDD3639CBD2D6F803DC7AB4C3E367D13BE0673FB3DFE5E813DD91A863C91B207BDE16E25BDC7E9CEBCD5440DBD307FDABC1A52A3BD89ED16BD7FD550BD259ED1BB4C55293CEBF1B33B9313EE3D5B96A23D9B74023EAB6C723D11B37DBDB2F3283D6FD11CBD3D2298BD1BA329BD5A7005BDA2C6B1BCCF2285BD1B87C2BD9591C33CC21B3F3E220EE83D029E893DBAF6193CCDBFA53C5C5316BD6EAE64BD5BB23CBBC7AFFDBC004803BDBC262F3C5030B7BD7A0B35BDDF88F1BC9655DA3CD4B86A3DB021403D802BBB3D1A53D6BC0CD4BE3C07BAB9BB2C29223C3721413D170A563C6A50AD3C7F5101BE82A3CEBCB9E31DBD87286B3BAD99C5BB2AAD263D6980683CEAB5013D7856323D469C9E3C5612883D7AE0973D43E10ABD1D17A43B9DA81C3C9653ABBBA86C3B3DDAB6B1BCC6D074BC55ABFD3D1937043D295A963D02EAD03DE1F32C3E4F49043E6505B13D17A02F3D8AE3163E1EEA133E5A69F1BC37BC8E3C0EB3ABBD18F111BE19E516BEF305813CEEAB07BCF9330D3D1C1E153DEB6BFEBCCF2D513D90B96F3D5C0912BD0182D9BD9E17E3BDE23DA23C8CB662BBE5E0CDBB061F033A3688963D22ED043DBE5F473D4747013D91EB753D6A0659BD03C72DBDC004403DE9D0C3BCEABB36BBCADD483C5F8D3DBD9868B9BC5193FBBCFCE3A0BD960592BDBF0947BDA5E114BE817C3D3DC16FC83B006AE53D2690A43DA295203D75719CBCA24290BC88ECA63BC02924BC1E316BBD3F88393C70ED793D3EE88D3D336FFABAE1113B3BC542C63D96DBBE3DBBCA0CBDD7059ABDBF185B3D89164B3B0D19913DF09FC43C13508E3DBF84133DB055E83D3A269C3D831F053D33DFCBBC781D633DCA8AEABCD90E10BE692EB1BD1FBE613DEC76613D32452B3C09376F3C700087BCA52F723C9C4B0EBD9D90D33B528998BD9BF87BBEC29328BE663E6EBD896F16BE3EF008BEE5F61E3B68D8973D3977CE3C45B6B33D4040E7BC4B26DCBD1990053CBF230EBDD62C11BE23536DBE685298BE1CF681BEBD0D87BE55D09ABD83552A3C351EB7BC47ECC3BBAF1DE63CA59B0ABECE79D5BDB9D697BD3BF3C63BDBA713BE40D279BE598B6CBE183554BE684509BEC6B7CABDD572543D48347E3B3D110EBD25E90DBDA8BBF1BD8051B8BD6392DEBDAB6081BD1966B6BD679646BEE563EFBDEF3E67BDAC1B19BEB8BFF1BD644F18BDF74627BD96E4903C327BCABDFEBC0CBE42FA5FBE11E7E6BD00902BBD9D795ABDF8CE2BBC9C33ABBC1C74A8BD2BBEB2BCEC60183CD720D43C15DD3DBD2B2E8B3D722982BD293F763AF76543BEDFCE12BE131F52BD4ECE96BDFD5605BD4F46443DDDC23BBD15D680BDFD2D773D2E9BF13CF33183BD6D12D83C2764623D7741CD3C75B748BE3C5C0BBE3C9FD1BD7CFA5B3BBBFF103CB33B923CCF1B853D3B01A93B4C28783DE611B33DB9B7A6BC57F10CBDABBA7CBD94C0DABCE7180EBEFF2409BE65DC90BD37B5A63C3F16F6BC0D61CA3CE510323CEFEBC03D289A8C3DDCCD213DA770A639019D8BBD8DFBCFBCB2A22CBCEB95CBBDBA241ABDD31C31BD3D5A9B3DE19596BB3426C2BCCA16873D5D93FFBCBB5601BB5A23A8BC327B8BBB793923BD00BE4FBD87D0ABBDA37845BDA188DBBC6CEDA73CFFB4E93CB61B36BD35E43F3D8178D03CF7B902BD47D803BD3661263D91B186BDBC01A13DE8B2F83D34D6B43D7384DE3D3674063DCA12173EA5785F3DBE879D3DA37E6A3E417A143D187EF03D7FE86D3E8D8ED0BCBA8865BE777ABC3D36E0733D19300A3D6F795C3DBAC756BD99BAB9BD0D73383C5C7CA43C2DD9BEBDB70B9EBC4F18AD3D2AB222BEA82DB1B9254C32BE887AAE3D1BA5AD3D9B9AAF3D6563BFBD54F6DDBD9DD3C6BD56AF64BD4930B5BB8C7167BB34EC1EBDE4A0D53D81FC40BD092650BCA99A58BDDA945CBDB5646FBD67AF963D156141BDC493C8BDA6DED7BD878A47BCF728783C01C0523D219429BDBA8591BCF1C400BDCE51D63B28F428BE2FE75CBD16E0C5BDCAAD373D3717D8BD0D36DEBD77BBE2BDFBB842BD987278BCAE640A3DB62BB0BB28318DBC97DA96BD6A7889BDD5D057BEBDDA773DF72180BD037171BD425E64BD9C9186BD8C0C9BBD7F11B2B986FB8A3DD85B223D7E56BA3D14E6CABD478078BE0A495DBD910910BE4F79613D1848AE3D42B5813D0E3090BD705E97BD22E87CBD6E470A3DC6CACC3D01EA0F3D142B3EBD86C93F3C8EF6D63C705C6DBE259F3DBEECAA85BC1E8C843C3ED751BC2DAC23BDD3F138BD4B32933AE7D5153D7396A33DA5A4423D0E70B23DD2CF663B331D883D23530EBE062929BE803CCABDF506B9BB8E99B43D1573E63C782C1DBD200E35BD0354F23DB047413DFDCE6F3DFBAB673CE555023DEC5D2A3BF10AF5BD7608A3BD48CC3C3C5668B8BCFD08A43D4FC494BAD1A6DA3D594AA33D9AAED53CA880073EED38803D4C503ABDD321B63CB96026BD2DD73BBD6E849FBD61CBEABDF6CF1FBD33FA803DF96C8A3C3EB63E3D36CC9A3D8E60B9BC2F8D523D811BF23CA91E36BD61D8223D6E2FC53D8BB74BBE7268953C89E0F73C37DB65BDC5BBD03B74D7AD3C00E8C73B0587593C0D77BB3D359A173DEF51B83D1293773D9C3F3A3BA72E01BED41B143D4AADAC3C822170BDEF4796BD4EDFC1BDF25FCA3B5DB07BBC75849BBC8EF985BD041896BD921186BDC97DB0BC7999D6BDE9D82ABECC710ABE741A48BDB08DE0BB331DAEBDA8CED9BD1CD1A7BD852BA8BC24AB6C3DE980993C4A7986BD9A453DBE176C9FBD06B505BE2300ACBD6C4EBDBDB1B531BD12C3383C1249043D68DA4DBCE89DE8BC03CDA03DA45A653DB8D1943DEB048B3D5F24D7BC806896BD18A1AFBCE7D551BDB47BC5BA034655BC7752883D88C6D93C4DA1E6BCBF77A0BD203A82BC1177183D06B1493DD551A03D87BD4ABDBEEE8FBC2595FFBB2F91393D733A933BDDDA2DBDFCF895BDDF1853BC20B529BD730F47BC3A90123D963C573DCF66CB3DB0CCD23D30BFDC3D5F135D3DA6B2413C4557883D64DD5E3D26F4113DD792DF3C66F15DBDAEE90BBDF6257FBDCB564B3CDB67393BDC70DB3D7B161D3E58CB2E3EA6563E3DEC1BCC3D605EF13C20CCB83C44303DBDDD52B7BD143E533DE16FF93CEE3706BCAEA18E3DAD3F853DE5B2B83D6967093E9242113EEC53043EAD75F33DC1B8D53D9C47BBBADC23DF3BCD9305BD4569C0BC7E0B1ABD7AE849BD058F29BD54724D3DA612DC3D6D88423EC311473E025E453E3275BF3DC3549CBCFAEB87BC6A1C9CBD8A54A2BDAD4CF33C93EC00BEE49A56BEE2591EBDBEF880BCC976B23DDF54DC3C331BE5BBC700A6BC50835FBD422422BE276DA4BDAF6442BD46CB1B3CE98728BD186077BE9FA185BE4E2E7DBE8CAF3CBD0A37A8BD4EBDF8BBA7DBDEBD8DE6F3BD4149FBBD290BE13B725CC73C063BA7BD26C199BD474D90BD2B4481BE408AA3BE0C9E24BED6D133BED550CDBCD20F56BDB54584BD04F095BDBE9B1E3D35E050BB1E32333DC0DB11BD31A06CBC0F6E50BDD27BD1BDFB4558BE209857BEE84DC7BDF02100BE90FEA23C6B773E3CF6C1D53D89BCC2BA52CB2D3D92EF1CBD4A003DBDCE4480BD9EE73CBD781FC93A37D8ECBD2EAD37BE41295DBD9DB2633D6C570A3E27EE013DB42AA63DFBCB45BD00D9163D084A78BDB39EA3BDDC58433D8ADD7C3C272042BD051FC6BC3ED90CBD890118BD4CAB943DE7FEC8BB48FA8ABC6C92423CA94A82BC0323643DFA0D9F3CDC6259BD1E868DBD26161EBCACA536BDC2114EBC74E8E53BE1B116BD4B130EBCBC30BF3CFAE5343DF5AAC2BCCEEC87BC89BF7FBDF8F9BABD41BE82BCB8A99FBBE2A2DE3CE1BF37BDA68910BD5BC22EBDE1FDE5BDB61509BD12DA5BBCEF52363DB5F019BD5A6439BD96D03C3CACBF153D4CF480BC1589473D7D031F3DC6CAB33D5EAF9E3D1273BB3CC644D33D84840EBD55E53C3CC820C53C8F51213E57DE133D24923EBDFE721FBD2775DF3C9076DE3D4A13B3BC72D1C53DE01E48BC32E46FBDD285553AF777013D4FA2623D223C1F3EAA6AE23C258B843CFE42803DA3FEDABC809871BC1FDDCD3DBC40B13DBA691A3D3A8C633D1BFBD53C518FA33DB940A93DC0C2BE3C2138873DE9E909BC4B881CBDE538283CA718F1BC5D2B263B20B5B73D70CF49BDD8EB21BD6F013F3D9A0190BCEF67A73A73D502BD50C928BE1D64853CC80196BD1C7ED4BDB34087BD989B54BD220691BDC2F58D3C461591BCCEDEDC3C652DBDBCA248813C472380BD5FEDF0BDF1D937BD56B914BEDA980FBEEF602CBE826837BD38B3C23C306093BB2EC001BDD36FECBA9B04AE3D6E38E83D7D9C153C8B528FBD12740FBEE768C2BD27DF57BE199A1FBE57FC07BE4780A6BDDBC2BEBD671F09BEFDF75FBDF20AB739F244B43C82CB423D425D22BC768729BD289EDFBDF10C42BDDF456ABE4A3EB8BCBE3EE33C8D38123C09F7B3BCE82911BD9AADB7BC6BF7F93D09C93E3DF69D103EC7ED403DEFDE3B3DEB07033D9EE4D1BD99F85EBDAFB622BDA36E4F3DB6F2B8BC8B9D463D56A6B93A98A07D3D4F9EA83D2BAF8B3DA26EF83D52B5B23DF14F043ED3A28A3D54E844BD58E897BD8E083CBD00044B3D416D263C43F3AB3CE71F233D838B453D5E72953C81EE733DCB39583D0F4CC43D9FD1D13A202739BD4D197FBD432CB63C40DC76BCE9179FBB32DC803D4D80563C0AFBD4BCA9BB9B3D283F10BD85729E3DDB0D35BB01ECBC3DC7BEE13C96C49ABD344EAEBDF4D9F7BA6A3031BD6BD1C03C33381B3D7D139EBC146F89BC53448D3BBE5919BD3183F93B1E609C3DDF129A3DC204683D15C83EBD8ED0EABBEC8CBEBD6FCCEC3CBB614FBDC3D2A7BA189E2E3D44A72C3DB936D2BDE3722CBC33AFA3BD5458E23C038F223DC412C0BC4237A2BD625919BD58009FBDE59F2FBEDF7640BEE4D420BD5F26C8BC10D1AFBC8C622B3BA72A15BD1852EFBDF0B623BD3F1048BD7C7D7CBD6BC213BDB6F0E83B5A52F03C5812E6BCBFF54EBD469D1CBD9DF07EBD1A00AB3C58DFAC3CB5A5713D0BEF823C0D6C95BCCA6B24BD1774AC3B7812613AEB08853D91FE093EF381EF3D5798CDBB1144A2BD695A9CBD4728D03A2B7335BD03DFBE3D7C8EE13C657FCFBC9A4B89BC6483833D5C27BEBCB578AABB0169D13D83F0DA3DE8E36C3D845E603D1E059C3C22EDB7BDB0199B3DEA88203C1EEB823DB7F6D13CECF607BE2357D5BDE00A17BEB864F0BD4236B7BD6797873C1E1D9A3DA469973D9FB4253D3A8C05BE7D6E943DB79914BD48478BBD400BECBD221E31BE6BFF01BE5CFADEBDC2D040BD3E47943DD95B833C1CEFB73D92519B3DEEB2983DDA76F2BCF1EE33BCA459F6BD7A848FBD3E16F6BD6EEE34BEA72125BE1D35D3BD8589F3BDEA08BFBB5FB49E3C7EFB163D4789443CB5CF83BA4AB1E5BDFE901A3C760F83BB649F6D3CB9889FBD87AB1ABEE5E739BEE62AC4BDB84DBDBD77A5713C40370E3DE9EA883D8651BFBDA9DB3EBEF5AC23BE36B17A3DE6AAC43D990C693D6AB991BDD59118BE2177E3BD6CB238BD86744A3DE252003EAD7D833CAD74F53CDE0EFBBDB5BDBCBCADE867BD7B84E53C9885B53D0CAD35BD89651A3BBDE91BBE3BD4DEBDFCA779BAC7C53F3DADB1043C7834A33D63DBE3BBED96F6BCDC14DD3C9DF521BD2B855ABDC31746BDE161613C0D64A73CB1D69F3C81A4AABD07C39C3DCAE18A3D15F9A3BA9E2388BBE1DE46BC6E4FA73D6F007C3DFA2DCDBDB8E7353D1FF88A3CD5A2563D3F4E993B8613873D71FBC6BCA639FC3BAF40753CBEDC853CE0B9FD3C3DD6103D17E702BC669EDBBDAA7492BD7522513C61E54CBD4F9411BD40AA523C2BF9A73CFB9F473D4C5EC63C3880AC3C1CB3B13BB170CBBC5CE75EBD2FD3ADBD27FF8DBDE80FDC3CBC740BBD9A5756BD88DD82BDF07A183D1A448A3D8CA0873DE2DAD23DA9A8853C56B4643D56A2633D55B048BD2249A1BDC9A42DBE5CDE8FBB7D4BF0BC12E0B9BDAA12E7BB6F63BABC8D62FEBC9C9A4D3C08DE6ABA4F56FCBB695539BCF2037BBB663148BB7EB854BE77B100BE69602F3DDA9F9CBDE6F4F0BB50A523BD5F0181BD5F6965BD672ED5BD4A9F04BD6B3F8ABDE25603BE67A89EBC64F891BD2254D8BD2BB908BD2C1C5DBCC2DA1ABD747B843DA7A4C53DA1423A3C70FE063D12674A3DA126053D3649093E191D8C3C9B69D63D2DC9D13C19180C3E47B0923CF63633BD89989BBD8D29AD3D42EAA03D0CEB95BC0F9FA0BCE7681ABD13F2043DCBA4C6BB995E0E3C8D3E113DB1AB3B3D909B393DD0CD4FB98BF88FBD52A677BC77D34EBD4B96673CA65EF2BD5BC826BECF346DBD79BB0CBD26FC12BDE692503DFE2AE93BCC8B9ABDA19739BDC90A1B3DC87302BE9C56D8BDF2AA0C3D7358F8BDA228E8BD6FD827BED63EACBD5AE1BBBD99F932BD823B91BB223CB3BD36D426BDA19E903CC1CF71BD76C43BBD097216BECFC40BBEE75054BD2DEC76BDF6CC2EBEB9F308BE7E1D5FBD81669EBC17CD99BD7E0F8CBC0B3AA5BD4FABD4BD39C7AFBD89F18DBDC6CA73BE85434DBE2E5298BD6AF6F8BDD99482BDAD3E0D3C57EB7B3D3E59333D2D583E3D51AA3A3D8BAE183BD1E50C3DCE0501BDC3F80DBE3871EFBD448E15BE202DA6BD41CD8BBD8F3A9ABB9376493DE6D2F43D625E043EF5FDDCBA0C7E353D523D5E3DEA6C41BDFB94FDBCE1A3DEBD1DFBB6BD6750AFBC633AD6BD5175FEBCE8CE243C92C6A93D4A8C543DDDB4093E0665E63C4131F53CCCEA3FBCCFCA96BDEC281DBE0FD56EBCAF055EBB552519BE618EB8BD578CA2BD91FDB2BB11C6D7BCF9AF4C3D36D4573D4F44CEBBAA8900BDC9C832BD4258F7BCCC08EBBDB196C9BD112493BD9DCC6BBDECFA8FBD013406BD667C74BD4209303DDDED95BDA26B6B3DB515413CEB891D3D195BD53CC72CE4BC033BDF3CA6250BBD379F55BD2E175DBD14ACA7BD5A42913C56F4523C66FF4FBDAA0E8B3B9F0F183D0AF62D3C2825413D2B02A23D3F77C1BB393CFBBD86E480BD7C0A2ABE7BA441BE9B96FBBD73A9EEBD23B1203DA7CC073B22793FBC4A34A83D5CA4313DB35A273D294256BD854D34BED8EAA6BC79CB32BD0B9902BE88FC18BEEE12BABDADA134BDBF9887BD6CE9CABDA5834D3A8424FABC26D040BE3D4F1EBE2AEFA1BD89D80DBD8637E1BD7D47ACBDA49683BD161ECCBDA0AFDDBDA97B3F3C6E1275BC7D342B3CBC689D3B62EBA53C155E93BCF2120FBD82EA1BBDA739CABCCFF5BBBDE5AA313D7B1977BD839860BB987956BD79876DBC8C9F833D806B2D3CB12C333D1A4191BCCE1640BD63D49A3CF54D5E3D020829BC1C4606BCEFFEC5BC13508C3D201FEEBC5BBE0CBD864530BC631FF63DA7521B3EE429053D6AC962BDB8936C3D944CEB3D4D1AFFBB5BE3F3BA31B69D3CA634313D010973BD2788CDBC4BF8223D41F2093E4E87603EA5AA8A3E36D2073E31E9083D3F1E753AE41629BD73FC003D7C76153D2C1A973DD9C554BD90AE123D4CA8963D775F513E1D301C3E2BA3193E5040E63DF440FE3D4B3E973CC0C408BDD15F3FBD04A0FDBB0F48933BDA4403BB18052DBDAAB86EBD28AF9C3C93A68D3D88BEEC3D7AE8123EA0C6BD3D5C3DFD3DDC6D3E3DABD50CBE0FF21FBECAF080BD78519ABD6627A33B40239DBB8949B23C4A75DB3D5B70C53DFDD4213E66A96C3D5768C03D0D11F23D64FE14BD79FB3BBED97907BED7CD34BD6FECB23CA18FBABC512EDCBCAE4B233C4E67413C48EC1D3E5A85983DD5A72E3BB592D8BB0305BD3D6B0093BD972382BEA08127BE881BADBDE6EED63D4C7A58BD729C76BD5C5064BDBEB084BDFD830C3E3C6F9E3D34BDEA3BF22D103EA8CBB13D5BAC39BD8744B9BDBD7E57BC81E896BC1166323D37DE4C3CEE1280BDD4EFE8BC710173BD2983503E68988E3D433A083CC65E613D2513C33831E5523DE8F5CFBB0542E63CDBF19CBC653AC33DA637773C9263E4BCB31A3B3D2253B7BC9216F63DF7B8123E88430E3EEF330CBD8D583DBC8176843D607C993D0F37773DD4A9E7BC1021DB3B5C58A1BC946159BCAFE8963D0D38BCBA6AF5F8BCA95A5CBD032FF03BAAC7DABDC369AFBD745A553DC7781DBC24B3213DCE629E3CD822543DF864B93C277E52BDFBBF20BD89C63E3DA60E06BCEBC8AC3CA937DD3C6E2F58BD3C6991BDCE5690BDEA91C33BD38680BD13F9C83CF7C182BBBA76EE3C1A7E803D38795E3B725D6BBD378839BDF728353D76C6CFBC7B60B6BD936C2EBE824C543B3BA9C0BDEB74863B2214BEBC5FD54FBD996E8BBD7D387BBD2D78883C48E54FBD2486DABC859950BDE5CB0ABEB6DCFB3B366EF13B70706E3C54C10A3D7A871BBD08F86CBDD4EF683D82B4CFBB38A528BC99A62EBE6CF1C53C07A31BBDFEABEBBC13B846BD4A9528BD94D6BABD2BD03DBDBED530BCCD409E3C3FEC0EBDC6E982BD90FB62BDFC84E6BD3AA891BC211D27BE41567DBE967BC5BD39E502BDB6B5E9BD304326BE50ABC8BD03D722BDA3D65EBE417A98BC86E24EBD1970D5BD288A083E5F26933D42A12D3EE824943D6157023E61B8C73DAEC1913D4478B6BCB744BEBD291DECBB7C512A3D2EA031BD06E910BE60E0D3BEEB56E03DB433993D94B8063E79F2FA3D28CC403E6F1588BCBD4B82BD0B79CCBD0CFB4CBDAF5A24BEE6B122BE0F8881BD5EBB9BBD3C5AC6BC3D049BBDD87B033E85B61F3C6400893DDC73A1BCA9E605BD2506BDBD47C0B1BDD5B34B3CB485ABBCDED7A5BD465325BD83AD563DF11DA1BC8C4BB63C1E47A43DD07F7EBC2332023D86F32DBD3880FFBC16CDB8BC48D1E2BC49759B3AEE989FBC58AF89BC9598F2BC2ADAFEBCBBB19B3C4B9DE53DEB1A64BD41FE34BDDC7B86BD546497BDFC4CE9BDBBAFAEBD0471B8BC785A75BDE300683C1A33CD3CABB197BDD8324E3DF63C943D64C1BE3C16B0513D7657ADBDFDE3D6BC2B182ABDAB0975BD4666CEBDB9BF93BD7B361EBD5008ED3D05D7F4BC09FAF9BCC9D543BDA1C5563D9D56ECBD0A2119BDCD5009BEE49344BD29F23DBCE6D1A0BDA2352EBD964D5ABCE7A891BDCED92D3D931151BD93AD0F3D17DA29BEAF9003BEB89728BEB1A3A3BCB1509FBD85E48ABD6E912EBCB35998BC2983F2BC909682BC3773FD3B2BF1FCBC5744CA3C845F72BC0D792ABC808E0E3E51F509BE026CB53C86CA06BEABD26BBDA070B8BB34D49FBC038BDBBDA96BE6BC49C9DFBD2CA074BDD68171BD865740BE9112543C44AE12BDCDFB1DBE58FA50BD3E1E563B9E7C46BD0667B3BB3E9F1B3D70EB44BDF76F343C7FF2CBBD416964BD1E8D32BEB11908BE12ADE4BDCB9062BDED2B22BE297ADCBC44E90ABD047E8CBA18ADA83CAD31CB3C8E32B9BC40E2EBBC48D40EBCBE161EBD05990DBE053307BE8FB535BCDEEBFDBD3F08233CF8123F3E3581CA3DF61F263DA28DA83DE6D99E3D5799973CC7D1B3BA0703F3BC16D8CFB91588C7BC1F196B3D93A70B3E2603A7BCC465393DBBF91C3D3E0D0E3CB8CC973D957EDF3C9CAD21BD102393BCF4C38B3DAF85133DDE3D6D3DE4EB043DC54302BDCF4079BB3022883D8796B0BC735209BD85EB8BBC98F592BC272DB539ABA8F0BBDBB8F8BB0E4122BD3DB279BDBB1486BC4C617F3D12B28BBA1F8A013D671B3EBD752E813D9A3C1C3D468BEEBCDE7C8EBDFB1309BC79B6D73C82B913BEDE9612BD6CD2653D063F37BD07E8993D5E5A7FBCBCA1C33D3E0FDCBCFC3726BD787D5D3DC76C263DB4C172BDA35519BE11DE6ABD2F9608BDC863E03D1A6B943D56099C3DE5277B3CAD8E9CB94E2409BDCFBACEBCBA46073DC24D79BC58D8103CEC50ABBC91F9863C3B39AA3AADBFFA3D8AAB6A3E2772AC3D6F3FC23DCFD2C2BCFB73343BF7D5CB3C5EDC74BDDB05C43D96C001BB3264653D1602C43C6F73B63D2E25263E3A94163E8786273E4142CCBD5E865F3A4A68753D1F0D36BC6072CF3C9D02FFBC19C117BCF62B983DA3FB203D6FC8383EDF74823EB2363D3E23942C3D75B6AB3DCD0D8B3B99D2013DC096233DBED45FBC10EC3D3D1291323AB32C133D4121C53CC88B1D3D386C9B3E6ECCA13E82D95B3E95B1E23DE1B6B93BE1FD3C3CAD09393DD2662F3C05CA69BBDF5F4B3D4173333D408DB5BC0DAE76BD08CEDD3DE79B2C3EB764613E799FD43DDF25A7BD9820253D9FF020B99C6C1D3EF1DDF23D9FBF943DC5FB80BC0CB3883D7317D83C9E9A56BD0E2A0D3DC1A2EE3D424C813DAC62773C42C483BD72D8F9BD700E2A3D7B49083DA4EB233E731DB1BC0C76AE3CE726033D96A1553CCA13013E7C48853DC0C6F63D67BBF13AB43470BD5575ACBD67A065BDC3531ABDEDEB8D3DF96D2A3D3F8B8E3D1718C33DF96D2C3DD5E9133C5465613CF5983FBDDBC9963D6B68B2BD0E82FCBDA99326BE715BD4BD51AE2FBE7DEB70BD2F533CBD2ACCA4BCEC9FE8BBF9930A3D7B31AA3D1884A73CD336543DCFA6C6BCA10D50BD18CE97BDD5E323BD137CAFBDD5000B3D409FF4BC12BB9DBDF87393BD8E1355BDD286BFBC40AC1FBDCDD2A03CD0FDB43DAF789ABA393C6CBBB33ED0BA9BA7073CE41482BD2C6B31BD6F38AABDF3B0EABBF577E93C3B62813C1891983D84B02D3D1347873D312151BD78F8A8BD5E98ABBDF905203CFB4095BCB40CD83B270DA3BD5C6857BD73797C3C3D56C5BC9C2581BDC0AE643D86D2793B105916BCBDEB8C3CF746E5BBE37AA6BD50F8CABDE4D8143B8F4110BE848D0ABE1E770BBE6BA2A9BC76EEABBC77578DBC94C2703DCC85863DDACB71BDB41F6C3C8D03E53B6549FA3A4EDC883D69A650BC44BFEEBDA996AABD1ECCE5BDF146B0BA588E94BD242F06BE8FB26A3DD2F1E1BB7579923D59B5833DA421613D23B1F83BDD8F383D07FC75BD985F9EBD99EACABCE5DD34BCCE8A333DC83B983D545E063CE4B5C43D8ADEB8BB075EE3BA0F695B3DC9E41A3DA7C0A4BB5E0374BDD4D83A3DDF41C73CC325273D8A7A85BB4A4199BCE548C4BD270C4EBBA28BB6BC2EFE873D8779833D5F65F0BB4E31A1BDBF7C0EBDBA0CAEBD71C9AFBDB80AF23D3BAAC13BA7A133BD7CBAC43CCDA21DBD1F7474BC32D02A3D3F6A7A3C0D29FC3D2DFB8C3D528FC9BDB3E438BD668024BD5626813D226E963D2857E93C02086D3DA427663CACDC9EBC0D085DBD48B80C3D0586B63DE73FAB3D477CCEBC0F8B833A89E8013DDFDAB4BC357ECDBCE031E23D7509293DD2D62D3D4931C83D1C3A24BD142ADB3D25B571BDC77484BDB32952BDDAD54BBD705997BD5AC385BD45F714BD8776153CA61AAABC1B60293C90889A3B3241B13C63937CBD2B7E2B3DE29588BD84B625BE9A8D82BDE7CAE6BDFF344FBD5C05A8BB6E174BBD1442E6BCBA14CC3CDF91F73CC3B553BDBF0CC0BD67E401BEA8BA7BBD75DE583D9FB59EBD8D8E21BD80A14BBD0BB28CBD2FF48CBB51863BBB6B5A073EC23E103E535AF43CAD1E153D5E3344BDA3DDFFBDD3744E3B3D5847BD7A780ABD2F3586BDA0372DBD7D2C7A3B57B021BDB3434E3D4773D23D2402053E94BAFD3D33B7933DF33136BDDF1C81BD4AD533BC4CA456BD326ED8BB7CE4763DA52D023A3428A8BB518F87BDA0A8EB3CB366423DA723283EC4BEB93D8DF98ABBC63317BDBB27B2BD296281BD70EF1ABDDC7144BDAF62E03D136E25BD486A8E3A2BF0973C8CFC373CEB4C9C3DDBC1903DE614163E4DA0973D6D1A073CEE3BE0BDECE22ABD3E66AC3C88C32C3D49AE67BD199693BC0AE3063C7E493A3CDFB6AFBD309B76BCD0FDEFBCF7C450BD1EC35A3B5015B9BC29DB0FBD276637BD8F6849BD3781EF3B4064703BB87370BA8B4001BE3753C0BD8E811ABC36B1CDBDEAF406BED39D51BDC65AA53C704249BB8372113D183004BD3FB4643C2CC58F3B18B4463D69E2ED3D6A41793D8C1537BB2C23653D92D16C3A535366BDC3D603BD557B293B4AAA8D3D104B813DD74239BD54CE843D2961B53D2685723D004AE33DC34F833D054E633D772CA73D8C05393D87B50D3DF4F4893ACCB007BD8B6796BDD3C605BE886E98BD811DF8BD8100263D8D10153D0E39173DFB51ED3DF33B183EA033B83DD75C903D341ECE3A3C701C3D010A2EBD464F48BE23573DBEEB9031BD25B4E9BD2EA29C3C1749F43C7B0D87BC7EB3DB3D2E61B33C49193F3DC6226DBBF032C23D1DFA353D26C2B63B0A9C65B935237F3DAC8A02BD9919023DD06D8E3A8B5A00BD73713B3D293F4FBD03E4183D716B07BDA0E5A13B95CBE8BCE8F100BCEC12AE3C0FC04B3D69235FBDF95B0ABD14560CBD75D02B3D1460F9BC1F478DBDEDC00A3C551AC0BC47118BBD39AB24BE07B728BE28443FBD5C46593DE8E5013D2B4682BC12A3F93C77A8853DE1AA37BD71718CBD82FDBFBDEBCB9BBD89D0A63B5591C0BD6E6BFCBC469FA8BD7138A13C8DCDA23D626FAD3DA0106E3CB8731EBE768389BEC72744BDCEA6C7BD486265BDB19C4CBBD288EDBDEB899FBCAFE9C8BDF8877ABC3A44373DB11EA63CEC49473DC222833BFEE3ECBB70893D3D4252E1BC629ABF3C0FF863BDF05DACBCD8D53EBE2E2979BD1ADAD3BDE9FB8FBDD0BEA3BCA1D82EBD7B1C60BD5B3B063DE290E3BDEE2679BD375FA3BD24FC333CA2E11CBD9144C1BD7B11C2BDAC7F03BE31763ABDCF00DC3B08D4ABBD32B227BCC45E823C2B1257BDDEBD85BD10998B3D2ABC92BC3EF3AE3BEB6E3EBB2F6A9F3CB07057BD2D2908BE991990BC679712BB0AE788BD4FDD71BD09A484BD078DB2BD2E14F0BD92ABB9BD95C2923D13041DBD6B36CBBDBBC5593C6CBFEFBC1EE2A93D896E16BDD0B359BD574A443CB3D0D6BC8939A03D4744A3BB465A993D9B018B3D0458A5BD0D208CBD0200F7BD2274473B35E6E6BDF999DEBDD3E86BBCAC4CF3BD6FF6AFBD2BF491BD1623E2BCBFBC8FBD1118DDBDD59C02BD0A5844BD0A7BA9BD856F1EBD3B0D11BE330AFDBD48B712BE585B1FBE87B821BD4007B0BDF173CDBB2025C0BD814D6B3CDACB4BBD1EB09FBD9E65BDBD287A233D31A30D3E0962583C197D6E3DFA388E3C27F4143CEA0A823DC4DB5B3C6BE04DBBA15685BD900308BED87DD1BC03C233BEF7F41C3D5C08D73D2C0757BCCEC64A3D2472833D201EE4BC07D1443D1DDAFF3CB1C4423D6CED473DD844533CEF73A33D3443DFBB77BB5ABDE30AAA3D1A9F453DCA84273DBA8B913DDEF69CBB3D8C04BD667F853D7B99D33C3B2BE03CAD9F14BC4593AF3C16B8153DB2DC9F3D34802DBD74A44FBDB09E683D9B450A3DC0886C3BAE1E933DB7636B3CDF67CBBD04D7DEBD531F653CC3A26EBAA6D6803D305191BDDC5FD4BBFFD5C1BDA943103E21C5D43DA0EF31BD4CF81B3E1AA9213DC46804BEF37051BE301D00BE5C822EBC4EFCB63DA95B7BBD6CBD0FBDA6E621BD77BA0F3DBEEC2A3E2F52DA3D35A978BDE90E95395D20773B9E89AA3BCB6FABBD259523BE9E91123C3238B93DF5E66D3DAC65253DD86BAEBBAD9EE4BD4174A1BDBC46BDBCC637063D8964BF3D1D72243D1376E7BCB1F1E1BD022A41BDF5EA3CBD0546343DF907F33C1D0ACABC1F188DBCC6CA30BDA0CA07BD785BBFBD58308FBD58B29A3D026B3A3D3C5D91BD383D12BDE4A562BD06581ABD25EF5B3D935DB63D2C0B8BBD0250A3BD2FCDC33C74374EBE2D198EBD02A622BE4A4EF2BD088A073BBCC4F2BD3B4EB0BD1DE4DABD56952FBE172218BD5C042CBD7F656CBDE262A3BD6EEE3CBD95C48ABE151803BDD2F1073CA8AB8EBD025E52BDBEBA2FBE66CCA3BD6A996EBD10D8CCBD44431EBE8A3E7DBE7195B9BB841DF7BD2073EDBDF2CE0B3D6702A53D12F393BCAA65EB3C997936BDA885C3BD971B67BD88F105BE09C5B9BD6FA36ABD7A028FBD52CC57BBC0EC2EBC29513ABDDA9783BCA0E571BE2ADEC5BD8247CF3DC76AA13D7FF770BBC013CE3D53EA893C7A64E53D567AD63CC16A8E3B95A6A63D0B1AEE3DFE4DAEBD70D2FA3B91EEFCBBAD1A45BD0F6C073D9A3A11BA6AA766BD9938AB3BB82EC8BB178F8CBAA3D648BD37F9F1BB61E24CBDAFCB503DB36DCEBC2F44733D8BE5D83CE0469FBCD79260BD29C0113D194A85BD16D8FABCBE8D68BCA7821E3CEEE080BDC1285FBD0E2BF4BC30759B3BFE1D613D85D57F3C4E965FBD02AC733D9EFD443DA3A1883DD8ABCB3A73EAA4BDB33524BEDAB49ABD0A6C8B3C263C8EBC391101BDDA5193BC8254E93C8F79343D681EC43B61740DBD185C1ABDE352D0BBE85DFABD6A5E69BE24D865BE745B3FBDDBBA01BD635EE03B7924B23CE18AA3BC35D5963C3A6A153D9702D5BCFBF6A0BD9FAEF1BDFAE262BE07B706BED237DFBDB685BBBD63143DBDBA377A3D30CAB03C7157BB3D42362D3B03CAD8BD3E9A803DF260E73CDFC25ABE554B1DBEF97656BE788A08BE5F81B8BDB34335BE36804E3D86B1083E969E293D8F9EBD3DE9A56C3D1F5281BDD451C4BCF69082BD1B71DCBD22507DBDC75BCABD68F63EBDDBF30B3C57B6E23D0821BF3D65A6DBBA6F10C63D84C1663D0A3E71BD3AFE273C42E2BABC421125BD72C6933C662D5D3D2F322E3E758B453EAEC6C83D01259BBC2977C33C56233D3D53889E3D207A6F3D8DD0313DB55B603D2DD0503D2302E83D963F073E345D333E9A2A803EA0B8953E642303BD1634A8BDEB90E2BC8B9EA03D3BA3373D7EAFF73C04E4463AA449263D72CD6DBCFC3D7B3D7AEFD03D0835003E8B7E6C3E1C68D03C816964BC5F05883D108B1FBDBFBB33BB12F3023D0E43253D3CBBCA3C8026BFBB05E7F5BC03114F3C53D3F8B95692AD3DF3B6063EB9EE0F3ED7803D3E8862C93DFF4A00BD577B8D3BE77ADD3DE75FC5BB509BC9BDF249803D301219BD7630A3BAA0B0113D8DEB143DDA6D763EBF99C93DE203173E4A5A8B3D7B737A3DD16B30BD2FEA61BDAE3A6D3DCD9577BDA0422C3D18178BBCBA52C93C71725FBCE2BE1D3EBD41D93D1ECDE53D36EB143EB9239D3D5108AABB502CEF3BFDC3763DD6B5AABCF42A153D5B38A83A5BC0A63C71A212BD1EA41D3D379D8E3B00A6FC3C9A03F33D19A0963DD691073EE8C2C63CA87350BD604E123DCFFD57BCFEC47F3CC1F4ECBBD53E34BD44E280BDD023733DAEAB8DBD48D310BEFD07C1BD937C4BBCF3A7EBBDFAD181BD67A124BDEDC257BD0B4A51BDA50463BD4FD190BD25E6CABD21402FBEE6AC933DBE3089BDEC8D8ABE4D810B3D926D83BD17BCDF3D37561D3D9F34BC3D8A7842BCF3F9C5BD355589BDD99D0F3E82A987BD3A8B22BE7BF55B3C42969ABC5BA04CBE5334C23CF9B6323D03ED0F3EF368F23DE4563C3DB7FEAC3D7A5EEC3CCCA8EC3DF0CC30BB2CB8E4BC760095BD342693BC0DB036BB1C255D3DB92CBA3DC7A63A3DBA16A03D50BB3B3D1E84633D89036E3DA8383E3DCEA5EC3C5E2B453DE8FB82BC1F08273DF59AC43CF9A4AA3D788FB73D05030B3E20FA173EA2E6993DD2DC053E5D88213DE8D55E3D5ED53D3D26196D3CC361B2BDC5FBC33CD203843C2170643DB897B33D22A7253DE096093EE4701E3EEFC8B43BDE4E52BCB98A7A3DDF327C3DF46C893D5A3A88BD805600384BCD9FBDABF2A03D681EC73C8C3290BCC8CF963DE71C053E2F80933DA7A2773C116FA83DB381173E4052FC3D57A4093E281BE43DC9AD033C7B34453C32FCDBBC79A49DBC4BA766BDB5B9833D1C99DB3DF7BB3F3DCF45A73C7492B93D0989333EC1AF9A3D1CE8DF3DC6ADC4BC64611BBE1F6248BEE994873A267E94BC5118863C9A4412BD6A33E73C029A103D362A953D8F459B3D94F5923C1907433DCE4F113C3E68BABD2A29023EE7F986BCDA42AEBD4D41A43C4B2D353B87D3093D7F0B803C9FC7D73D3C7CBB3D9D164C3D51C633BDF97E3ABC25B415BEB3B53C3DDA7D24BEF8E9E1BD2B574F3DB60EB03DC9BA303DF5B0223C6B447C3D1975893CCEB88E3D48954D3DB803693D055817BD23299A3AB02322BD463248BE143E4ABE380A163D05067FBC0717A53D12AF1FBD5B5804BDC4E373BCE4D1A23DA5F58D3DCD0304BD8AF9163CCA8A633DEFA2A0BC776A58BE52D31ABEC71491BDE4C6363DABD6CCBDEB90B83C20A235BD8BD514BC2BE5C6BCD63F2B3D3CE09ABC339E423D7194DB3DDAB6E6BDD42D2BBE06E874BD0803C5BD469FFCBD008BBFBDB9F312BD8DAD39BBB76B363C7B693D3DD5D4D43D3FC80A3D6F41FDBBCD6257BE36AA3CBEEB9CD4BDAF9EB7BDB86C06BE3CA40FBD307FAFBB2C24C9BD34DEB6BBF04A27BDABD8A4BD921C5BBC5D18A7BC2383ABBD360918BA8E2BF83B52FA5BBD371A61BDEF0CC4BDC964B6BD7DC823BD6057A3BD5DEA19BC86A9FFBBA17E9CBD1F73ABBD25E5BFBCDD2BA1BDDF208CBB46E4273B5626D0BD344ACABD8E8AC0BDE75B423CEA030F3D1CAE86BD68D6FF3A074AAA3D877B3DBD4506D6BD1110F2BDB1DD22BE51D1BABCE9B618BDC5FBDBBD9AE346BD8C69A8BD42DA1F3DEC5D243C79207E3BF0200DBD8C139DBDBEF32BBE1CB132BE85FD923CF41D48BDB807143D0FA9B0BD098E7A3C3E1071BCDC81C3BD5E94BFBDC94EC1BC974A5FBEE50A60BEE71F0BBE0076A7BDED84B5BCBDB9B5BD5EE503BE0EF51EBEA627823CDAAA8ABD863484BD462DB8BDF1B20CBE460A6CBEE29D9DBEF95481BE344F50BE722024BDB75F40BCC5C2043DCFF150BB3E7561BDCC2C923C73F1E9BCCBBE19BD328E9EBD2571A9BD045A4CBEF7CD47BED67AB8BEB8D567BE329939BD3BB78BBDD3519DBC71C8D0BB4FF060BC7A333E3D0634B5BC55CA3BBCB195FA3B120AF83B70C5D2BC159034BDBAA82EBEACB137BEA9A56FBD87FFA6BDA2C7883DB735C83D90C06F3C3C8208BAF7A98EBC7E63E3BDB0DE99BDC82548BDE3B78C3B0D92933BCEDB92BDC3FE28BE130EEEBD7AC194BDF798213D3819C3BDEB43063C9140D3BD82E47CBDCEC3FCBD2262503CD374A13B6BA7ABBD676424BE4A9732BE1CDC2BBE8EE44CBE65C127BE9A75EFBC82EE7DBDCF4DB2BD267C0BBE3CA8ACBDA9A003BEF3FB5ABDEFA446BE2C598CBE147698BE0C91A5BEE7BA98BE19B9FCBD5357D1BDBE778DBDE95816BE9A2807BECA263BBD3789B8BDC48590BDD57986BC73EF0ABEEF1756BDFE91C3BD15C042BD363B01BD30C564BDDFD3C8BD743FA63CA9C25EBBD4C923BD398C83BD946080BD972008BD82B79ABD75267DBD114A283C0EC8123D90523FBC3E5E51BCF99190BB510C30BD6EA038BDD3C458BD67534ABDA2ADD7BD6407DFBDBBA6C2BD0210D9BD9A0A74BDE434B1BDB9F7213AFA69D73C9802BA3B357AC2BD504143BD2DE0CEBC292B7F3BA4F8CDBDF8B3D0BD2294073BDBD472BD832EA63CAEC437BD70BCB2BCF56A1B3C1042373DB2561EBD136A36BDC6FDBBBD93125BBD38607E3D93E9763D3A9034BDC43ADDBC2B649FBCB748413C6D8D3D3D86B8EE3C73AF75BDCEC4643DB1EC953CDE51853D0A206F3D4C5B183D74B1943B6286CFB933CDB8BCD4E857BD0254133D0C7E05BD72B4933C63D777BC6481863D6969B43BFDF41ABD67C533BD7B7BCABC55EBA43C037D133DBE32B8BDBB176A3C1426213D01C0D3BC19756A3D888F02BD86D8253D6DA53ABD1D554CBD08AAC1BCC1CAB8BD0EB99EBD01FB66BD747D143B9320473D468850BB31C3C6BDBB0E0A3D8024123D506729BDAC9A0A3D080156BCFCEBA2BD9AE4C5BD5E9249BDCAC86E3CFF2B983C46F4853C905F5C3EC943EDBC396916BC60B6933D9C52013E19BBAB3D36E1E93CCA563E3C7B839ABB064285BC2526F23C00EC383D4DE4793B0C869C3DA4FC373E5BB6B33D09D783BDFF32683D8407EF3C396D383D255B663DA6D787BD52AE223D6DE3273D67F548BD308F61BD977646BE54EBEFBD228E393D79CE363C6F598EBD8DFE583CCC09813D4167DD3C9446B03D913C0A3C7634CFBC2B55973C09190EBE35D78ABD0A9282BE7B0B20BE7F0E67BC3B86903AD424613D132902BD0641A2BD24C8BEBCA09FE23DD470D23D6626983D51ECA5BC5A8297BD28EDEBBDBF216BBB45DB36BD913D023DC06BB13CB42B91BD7F5C68BD7F900D3DA24C98BB71AF873D919D7B3C8D0EA4B90E97F63C12442EBD0152063C0130023DE47E963D74E2943D808488BC6DA544BDF46500BE73C954BB3552B63C70D09DBC1B24F6BCF6831A3D8F617D3D94963D3D3623793DBEB0733D7A3B81BD706498BC86602BBD040053BD6DF4FFBCE219763D4B660C3D469ACC3CF31D163D59D7D93C51A62D3D82AC97BD01902DBD64554DBD03B06BBDEB6AE1BC2AA5C1BCC090C63BEA3ACEBDC946D6BCC20FB03C9C455BBDAD474BBD1A54C4BDAAA6373CC24F6CBDE8B941BD28C89DBC32235CBCFE0DAEBDA5DDDBBCAE9772BD2F3945BCC4D50DBE8C0C8B3C86E582BC43DE33BDE4F49C3C3CE437BD0E65603DD04FF8BCF23177BA5404E7BCFF3407BDAC91263DFB9551BC77702D3DE890523DC04945BD609D113D4233A9BD3291D2BD45E5943CB780F0BBA6C7713C7D74CBBB6EB81BBD4308513D3CF77D3DADEAB2BCEEC444BD8F125DBD94DEAF3CA763C2BDDC96F8BDC021C9BC44AB4ABBC455913DE1B3B4BCA463803D05B5A6BDB751A83CB7656D3D16962ABC0292ADBDECD00DBE7FC07E3D7D5BE33C7BF387BB2EA1C8BBB5430EBD2369EDBCD526F03CCF86163DD8CDAF38326C993D069DE53D3AF84D3D79E5543D6A8B333DE118683DA166ABBBC75191BD8BA1A63C89D61E3D9B58AA3D4A62C33D063A803CAD72A53D88DAAA3DE6A2433D2F019D3D6BA9D8BD87870B3D9236753D3BF8AA3B2642C4BC4AA4FD3D60539F3D9C01A23D4690E93CCD1B833D67CA9B3D6A52C3BC1AC98BBC1E82B5BD0B3B8FBD91915DBC0261763CF79C683C42B8B63D8D17DF3D9D76563E19D6B23D45ED5ABD712811BDA023A43D161C4CBB09B1133CB47A8CBDBA4E8A3D11B9423CF0D2113D3E28653D591AD23C4F85E13DCC76EA3DE22598BC377C8CBDB39DBFBC195A223C73292ABDAD9CD3BACACB4F3C0A84B6BD418585BDF22A26BD0CF320BD173265BD856288BDFFBB433D01802EBD765CA0BD07A1843D3DFCCC3C6386D63AA159563DD1B0EFBD719A79BDA8D56B39C8892C3D06167FBD8E173DBC2CC69FBCC93189BD8EB4D33B0F1FDF3D39F1DC3DF1BEBC3D1DD515BD705A05BD75BC94BDD6E0EDBC3692ECBAEE2002BC57489BBDA5429ABDE2F7D6BB311B903D14FF803D8BD2AE3DB464AD3D480390BD6F8D86BC74EFC4BDF62B923D7FF601BE30BF59BD3C87A2BAE96F173D5BD961BC2CF302BC59EC373D249F973D2A48253CA963E2BC7B5156BDD01C68BD638636BD539A81BCE55FD1BD7E3E593D5DE2EC3C3C32D43C63704ABDF9F95D3D039FE53CF013B43B6A9A63BD563F41BD4A10AF3B501255BD526DB5BD66A209BE86B0B2BD388DD53C81E787BD8E1D20BDB1D3923C4013853D0FFCCB3C512FE9BBE04D4CBB12444A3C0A4487BC0559173DB7EC013D43F5EEBDCA4F83BD7A034ABE0306A83B5560913CC560393D19BFEABC322CD6BDA7373BBDB36D55BD35B0063DB4F3F4BD9910EBBDE72001BEEEB09EBD4D5FE33D37C64B3D42AED03D282A7A3C7F57B43C749168BA8621A73DF3B50C3D98CAD7BC4110BB3BC7FE723DAB16A03C3BB8903D389F0ABB5E98B03D5F609C3AA26DBC3D8F5EB7BC6B41CE3DA945233D529CEC3DA70BDCBC6104C33DB6410E3C0E9FF2BDD0E1AE3C8EA9BBBDBA64423D517CBC3DD79684BDC20738BC09EAF4BB409CDE3CD12BB33DF864313DA7ECEC3CEEEAFE3C7DD5A63D1B49903C07274CBDA10483BB9A559C3C649065BD44D46DBD139127BB8D16E43CC591913C177CC23CEE73B53DD1128C3C310C9B3BE264103C1D2ECE3DD1E116BDB33E9E3D45B8D0BC5EB1CF3DE92749BDBC7048BDF3A951BDD6DC8A3D0E9BF43C4015E7BC7C1A5D3D8439883D3422743DAD00373C6E55EC3CA49A883DDCE9E83C65A4FBBCA1966DBD25302ABD7D7FE43D0630D43C65ED8ABDC55AB33B9447A03D2667943D28F0913D72C78B3D35A5863C4FC01E3D7DBAF03C6493F13D462BA23CACC99F3D501736BD131FB7BC829140BB655F46BD96E0973DED946E3D0661E83D44DCB83DA1BD94BD9900B23CA9F74BBE9548C53D4E3EC03DC455A03DB7A5683D64901A3D4D005B3C42AB7C3CF269A73DF6B6813D29B7B23DF1759F3D3CFCDBBD5BB9933CF764D2BDC22C61BBE3C7223DA7C7F8BBF61F85BC38741A3D68D8A63CCA238A3D244D053EF1EB643DBC95163DADA577BD0E1143BD9543B73AD39E5CBDF68A9FBCB0582A3D0D7BF0BDEA0EEB3C5E53C0BCA832393D923251BC68FFE0BB1FBCAB3DB493E1BC7233093D4DF82F3C2114B23C9360CDBCCE4F133CE483F7BDB99EE2BD2B45A5BD00EC73BB50592ABCBDD6283D2B84C43CE5D6E13C57FB0C3B11895ABCFF12CABD22C353BD09539CBC4340C13C0922C43C654196BDDE6179BD1F55D13CA9D392BC10A19E3D2738003E11C2EA3DE4B4553C2FA8E03C907A313D0A18073DFD0A52BD8546CE3CC31218BE3064AEBD6EC95A3B03E37F3DD17C6F3B7EF0083EF6A4EF3CEB74943DE04B673D18E170BDC4B810BE1E81C6BDA78FD1BCED507B3DA605973CB0A1D5BD3ECEAEBD1581F33B9BCDC0BCBB8336BE202DBBBDBDE17CBD29301CBD3716ADBDE91B083D81CDEE3B53B6BD3DD5321FBD6764E3BB28A693BDFC8850BDEF6D8EBB674A223D078A8CBC47B507BD2B1D393DED8B8ABDA2D3533CE2F7BCBD770F7E3C141595BDAE4C823C073C153D3729F1B7EE2817BD47EEA1BD0FA8153CA39A98BD39940C3DE74C86BCB589783DB9DA893C38568CBCDD6D1FBCE626803D9D4ECC3CDDE8033D7E16A6BD7AE7493C0F74923D887281BD03E0263C31DE37BDCCA402BDEC7E43BC3EFC433BA8B55BBD6FB219BDC80109BD368F333D6DE97BBDB2AD1F3CA1E47F3DC1F4593D9DC7AEBDFBACE2BCC4BC83BD6C8490BD440E17BDF73FB93AB7C0523A0E4D02BD984DD0BBCE0E84BD732E04BD434367BD0C3BD03DE525CB3DE52C283D4CA884BD2F98F8BCCD9B333CF81128BDAC38B0BCF572FABCE58B00BC6027653DD29178BDA8CE343D6E247BB99FD8DF3D3AED88BC40DAC1BCED6CC9BD964B71BCFCAC593DDFE74A3D93849C3D7C18D5BBE3C0833CB1056E3C1F38F73C2F5BAABBE55008BDA457EFBDAFFEF9BDC79517BD59B6C6BD45CAEDBA9DC1F33D2FA27C3DDD4C643D28A6243DFABA9B3D89230ABB33B1B1BCDB18843C417583BDABCC25BE377D6EBE5779EEBD3C01A93DAD2652BC055F073C961100BD0ABC343CC50EBDBC9F7D9BBD7A17353BE554AABD3BA99ABC581EBDBCF0D250BD72DBCE3DCDCDC83DB6570A3EF5F3F33C804228BE8A1673BDF0161EBEEEC1E7BDDB09BA3C1F9302BDE409243B3C85A43CB236503B6332A53D9E7A563E0483753E503ED73DEE4A30BCF70A88BD280CB7BDB586A0BDA9156ABDFC8E283C9A38DDBC774782BD03B169BC8BB41B3D69C5263EDA29B03DE84DC33DD10A403CF8C7B1BC64BE283D150FE23C731F903D16490A3DFAD0D93C14579ABD06B59ABDF5B217BC417E4DBD000B8A3D87C48D3C85E841BD2E1EF93CA37F4F3D658F373CFBE938BC277F2CBB2179193D4FED683C354449BD32321BBDE68790BD0AA51F3D48AC68BD1084CBBD69AFCCBDD88CF1BCA1E3AF3CF0FF733C7285BF3CD0ED2A3D379F573D9E794C3C19305FBDE219C83C19A154BCC9179FBDB9D595BD823696BDDEC020BD0FC59EBD6277B6BD270964BD187A3FBD49C30ABD8A50CABC31B397BD78BD90BC4FE40DBE0BC7BCBDDDD81CBDE5339C3A777CA5BDAED3A4BDC188F2BD4293AFBDF5F417BE4ACCACBD963DF6BC4D8294BD4334F0BD7DACE9BD2DF3C1BD053D33BDBED728BE1BFDADBD676592BC7354A5BD68A328BE968B44BE26ABA5BDCE9925BE3C0AA63DDAD6ACBDEA8581BEB17EC5BC128641BE3DEC8FBEDFD32BBE57DF9CBD650F8ABE03AE63BE4DB537BDF4ED773A81A3D3BCF4D202BDABFA11BE90AAE7BDC22CA6BE51B4AABE50690ABDF98A0FBE8C3B0CBE0B4109BEB678C6BD0D5E0F3D58C5133E6B5A533D8895813D0AF4BF3C69C488BDE1F362BD9C7EBBBD7266043E0EFD77BD789F04BBB8BF86BDF3A717BDF2B8B63BBD52A33D8ABBD23D901A0A3E7FBBB83D07D72DBC10E583BC80F075BD684B64BE9A6A5BBED3F5DABCC54722BD1B7F853C9F5BED3D1706513D85EFE33D4624963DC4A0B23D37CB7F3D0684C3BBEA82F6BD52E9CEBD4AA09ABCB1891EBE0E9D04BC5CC0663CCF26113EBA9E273D8BC4FE3C00F8CB3DC083C83D5780E13D3195673CDDB626BDAE20A8BD38BB40BDEC69F6BD0DA435BEA442F43CE033B83DBAD0C33D349F603D135D863D55ECD33C94B5083C4A20473DD0F3D03A4774AABDAF9265BCFBB89FBDE5FDF4BD5394A0BEAF575DBDFE7A403D41AC463DCF66343D32D83D3DE27C14BD65C1143D7AAB3DBC0342AFBC014ACABDDA4BD1BCE27EA73DF745EBBD05A495BE846B0FBEF380DE3954C2D6BC5E6F94BD114D97BB02C1E7BD6427A43C8FE9413CDF47B63B3DAE90BD82391A3BBEB908BDA0B09ABD533CB03DEF816CBEF06708BEE50B00BC02F34CBD00D2C0BDB56B303C0B69D7BBF7D3FDBD8174A8BD1B236EBD841D6ABD094F763D3D21D6BC73E80A3E947C86BE57218EBB29F383BC9CD6C9BD6E471FBC77D69BBCB9A3AEBD24F1A7BD4FB6E0BDE79B06BE7FD492BDEC30A03D69770B3E209005BD4C6E863C6A66C23D303405BDA2F2073DBF8E813D6AA5C7BC371E03BD62770BBD36A330BD930269BD50A26C3D9864263DFC76313E7271A9BDF42776BE5CFC55BD8A10C13CB1DB1C3DD81AE33D443DC53DE18E913CF7E45C3DE7AE16BD84175CBD62F4FB3D516EB4BDDD793CBE883B5B3DA15C11BCFE93BA3C7207F5BCE63297BDC2469BBD8AAE2FBD79F55ABC899C88BD0B36113DB3D5D73CFD2CEB3B949F05BBE5F3ADBD7E845B3C4B7641BDBD4E8EBD7564343D68C12FBDE88D993DB06C2D3C1D5CEEBDA1EF96BD49D9F7BD82B624BD37508DBD7A6357BBE45F32BDA3D8323D5044C4BB9525B1BD2D33A53B39960EBDF27184BDE157163D5E48113ECF518E3D0C8710BB3B09EF3CA30E713D751281BDDB812EBDDCE0C0BBC944673D51E85DBDBF6E203CEEE0C03D108CF53D7ED98A3E45910C3ECDCE063C3E80ACBDCC7443BEF3FF0BBE366C1DBE4820A9BDCCE669BDA9295A3D118B803D2D704A3D5540A73DE58E9A3DC361313C72D0FCBA3D657DBD8E3893BD4EDFFDBC98FCC4BD56EB88BDA5001ABDF08977BD20EC5ABC0B315CBD5F94C5BDC2A74CBEB74090BEC18958BEBDED86BD2E39C0BDD3AE4FBDEF9457BDAD7AAFBD46EF04BE8C3A82BDBDB3353D74D135BD707A02BECE2DADBDCD5277BEB054BCBE532F43BE4005763D300E44BDF1D72BBDD07587BD060514BEB1241ABEC825903B3CFA4EBDF7068EBD409DE4BD6B9450BE76B25ABECF1974BEE1401EBD9FFAE23D6A4B773DBC21AA3D70E7A5BD6DE32ABD875E0EBC0B14EEBBB630B4BCC759093BBB1C173B9EBE16BE679E34BEDBD015BDB8278F3DF5CA173EE358B03DE632AC3D2F798ABC63DC463B3647413DC4023BBD8BCDAABDE66F0FBB0FF51CBC205ABD3BE53E4DBD84708A3D3023FD3D4E1B303E43E0213BDE5516BD6DC415BE17EF24BE5A0FDEBB8F73B7BD170560BD0D4BC03CC020F5BB4E98303D01542F3DB58C113EA45E263E50C0133ED0685DBD8014C7BB3E7EADBDC60E25BE6C307DBDFFAA29BD46ECD4BDAD5276BD598C10BDD9C25A3C02D4913DDFFBF33DE8538BBD8C4BA7BCBE47E6BD4504BBBD5ADC6EBD33CF65BCB6FA443BBB548FBD10787C3D4E404FBD49E6A1BD6BF3993C50613CBDB5BACC3B568A573BA0926CBD935396BBACB6A6BD1DF169BD7A97C8BDE0C206BD3A25B9BCF31104BD1A9E68BB16E431BD11D19C3D17FBC7BC4AD88E3CCB2B33BD11605A3D9708943C45B3DDBDA3B3833C4BAF7DBDE235813D78016ABCB0289DBDFCEC0B3DBF2581BD4A4E9CBCE8CDFDBB3DCE48BCA6B0FABDB6110CBD971E1BBDA5D0CDBDCBB079BD47521EBDC38B873D76AEFABB8F73933CBD7B7DBC63A9033D9B45BABDF0446ABD75CF5F3D0629B73D17EBE6BD1E54BBBD0551BBBD560B18BD3097D1BDBAC1913927302FBB518832BBD0C3FABCB0E801BE84928BBC445AA1BCD9E38D3D653EE33D535D883DDBC285BC395BC1BD73CD86BD37973EBDE3FE4FBEC35FEDBD30F72A3CC93E433C8405D8BC26EDFB3C0BA3DA3CB8729F3CB24D11BD9F3F50BD9C06C9BD5A7DEEBDF2AC2CBE11F060BE4CD45ABE6B18363B44406D3DEBE0853D8CF8623DA586BF3DA0729F3CD9A0603DC196383DE056DCBC8D06D93B9BB913BD35E151BB0B75CCBD4355D5BD449F34BD58ADA6BB3FC3AEBC5F57E93CAFB0C2BC7E6DCD3D9914853D389DD93D62B6AD3D03FBBD3B4D5F07BD7531513DBE7A7B3C3E472E3DAD3099BD00C6B1BD5BB5443B00978FBCB23BF43DDFAB83BB5FEFCC3C00D3BB3D4444753D64990B3D864528BC6366973DA44D113EE2EBA53D5AE6B33C66022BBBACC29D3DFF7D9F3D715ED13C6AD02A3A6E0A063D5453863B69AE55BD021B513D8F0DD6BCBD1E4A3D87E3C23D7F4481BD3D76913DA260DA3C3554A63D6E858B3CC24623BD8A11BEBC6660AF3B620EE3BD66BC08BDAE64803D5731953D9A2F593D21B1353D474228BD6FF1913DA0CE57BDFA9E0FBD813473BC8C842ABDC63487BC4B377ABD50CF1FBE353635BD89D79BBB9F23283D7133C73D4E013A3DEF37883DEDCA273DC61237BDBCB4C0BD17722CBD2CBB00BD30C02339A21AD5BDCDE8C3BDF907483DC6AA943D67A1AE3D98E9023E751E0BBD82BC7B3DF4907C39096FD63CD3D6CEBB84FE113DA69D58BD1A23B6BC1CA7A4BD760CB53C95A0073D350D813D1C6BEFBAD2FFEF3C436436BD450C803D911350BDC3D83ABCF05B0E3DC855833BF1B517BD5C3F2CBDF879643DE85F813D4FD7B03DFFC4F23DC044A83C238DB53C9895173CE5F5F03D92E3C23CCBBC8A3D9955F53C615D153DB492B43DD73424BCFFDD1B3E345FB93D7C90BB3D52285A3DC8E6F9BC54C1033E910FC53C14568D3D387B873D6ECF693DC464DA3CF8341ABD33E3333D1A3196BC0E55F73C99ED2FBCB1D1CABD98E780BDD3A436BC6ED7BEBCD5DA513D61C2073D6D4CD93C808D99BBE2520ABDD6FE403C24B466BD588F55BD4E9D53BC2CBCC7BDC6E600BE2B2913BEAD76FEBDD2A460BD614A1F3C3C3AC53CA060543DB116EFBC741EA7BD4443B4BDB3A692BC32440ABE916B61BED6FB19BE484D08BD2786BD3B8D3D343DF5B9A6BC29D19DBDF8325DBDD9469BBD7027C9BB1D26DEBD5E1BF0BD704028BEF41CC6BDF2D103BE8510EFBDB2AE9BBB3A28E43BE614F13D93F7FA3C59C0EE3D4A99E53D46109ABDB9AD06BECD5D48BD62C4BEBC0AA7DFBA2CB5FABC1C666FBD27F896BD34051E3D55C3803D36B2833D1CEFA3BCB7B82C3D9518D63D6E8713BD254726BCEE7B7ABD0FF5943D620B2D3D493AA6BCB1ED12BAEBDFCD3B7F07453D93AFFA3C218D49BCBF1F183D5B73B13CAFDDA4BDA7BC86BC0341983C4194F63CE7A2AA3C95E618BCC7F8763DBB024C3DDD692DBBE5B8C63D6DDA423D4C09EA3C7A3085BD2D4CB2BD057F46BC8FE8C63C36DA323AF2C09CBD29FD7B3D208BFBBC0081DA3C4E51DE3C635D833CB9F05C3D6515E53D0D2D8B3CE46116BE47C514BEC76F5BBDF1D7A4BD152D13BE3D7C30BEBDD448BA7D0455BD2473DBBC3533AE3D7BF0663D6DFE743D83BFC73C88BE9BBDFE4CD5BDB74C47BE3C0BF5BC1707493CA2D91EBE3BE354BEE81DF3BD0223F1BCD436CE3BA5049D3D6FA9353DB1C8F33B6AD382BCA1C3F7BD3BF0FABDC73F1CBEAB6212BDBB7CB8BDC2FD9EBDA22E27BE9AC6EEBD87E75DBB73A2583DCE5248BD83E470BDA89430BDC3FD0DBD4A1915BEFEE27DBD524F263C02E3313D8A4513BD510DF93AC8EFF2BC652E22BD17D99F3D9D3CBE3CF63D313DA613B7B9EBEC573BEBBBCD3C857B13BDCE3DC1BC6413A0BDA22CD1BC21DA203C72E08E3D6B560EBDD7986CBD3295AEBD526113BCCE9FC7BBE43711BD78DC38BD1C780E3CA9126F3DD1ED443DE92CA93DEFAC6A3C3BE28E3DB386FA3D0CBC663D3A3F823DE51A053B811AB13D8F73C23BB2D3823DFAA3833DD9891A3D8EA7843DC3890A3E79A0F23C2809CD3DA86F003CA38195BD98EF1B3E7F544C3D3A9CD83D1CA3563DA1DC483D09787A3C069F03BC47C604BE785205BEB33B8ABCA361C13CE8FD413D492D893D94FC713CF722ED3C42EA39BB0C6596BC9D8C943C233BA5BD844BE4BD81291FBECE3C143C7319ADBC0EF1D73C397140BDE6A69ABD1FEFB03CCE11853DC589063D9DAB7D3D3D7991BD5FAFD9BDD50DB93C2F24E63DD05B153D6378FA3DA910573B7550213D02C6973C1F818DBDD002FABD82991DBE2C36F9BD28B288BEF7FFBABDC5A0D03CF716053E65FEE33DBA8AD43D07810E3ED35CCA3D3930853D476FA7BDDC3989BD69498EBC5F3FC03D4156433B9CD233BC6182E3BCBBE86A3C84C0B23CA1ED443D4E75893DE412A93D8050573DDD82743D603CDCBBA867C4BDE94913BEAFA011BEB330D5BDC689CABDFF752CBC70865DBC7BFF773D8AD91E3D092CC63D6A1DA23D39BDED3D5533483D32D69F3CB74D82BC6125C7BDDCE787BDF264113D6B756DBC7A4E583C34B45EBD6E0271BDF4FB13BD36A8B03D19E6DD3D69B6C63DEF77C9BCB6CAA6BD6016D2BC0D1C91BDC6648FBD35F5C4BCFD8C55BE7651EDBD3E022CBEF1AD8DBCA8FF483DB026D63DD02E9C3D48C38CBDE6CA24BEEF4066BDC97C9BBD737714BE6E0805BE97519DBEF5852ABDC28BA0BDD1B53DBD3EA9FD3C5600BE3DE699073E1F46293DBCBF28BDAFE306BEB07818BE5B8CC1BD119BEABDB22718BE8C4A2CBE8F3162BE943D2ABD976CED3D1629853D78274F3DC056983D5FB735BD8B19D03C9516A1BD3913D0BCD63798BBC205903DA79BE53D307624BEACFDB2BC22D3C63DC276563D54A0B73C573A973DEBF679BDC7D0733DD8FCFA3CF5BC90BDC6A13DBDBA51B8BD473E9EBD14AD573DEC63493DD8E1EDBDCBBCF0BC8787893CA745E3BB0CF65F3C9203923DBC4E83BD41D7423D872D7BBDD808AC3B9C0A5DBDF37B9B3D8051053E03238BBDF80C013E183D093E39BA653D89F6993D8B4561BD7B32D0BDF7C783BD374243BD46845CBDB9290ABC7D65A5BD7272013D0A87EB3DBA92103E07BD5B3EF6623A3EEA13FB3D39998D3D0690AD3D6DB0E83DB0DA743D5B67C23D02FD1A3DF999C03D60738F3C173E183D2ECF643D3760B9BC391A61BCD2FFA2BD1F8D0FBDD35381BB793ECDBB5B2E373CB7AE38BC1A22203DE3E114BDD527413D83B0413C883390BDD10FC9BC7C3091BDED56DBBC5F865C3D65CF85BD09E2513DF8B4B1BD678DA6BB366E983C954796BDA32CE9BD48C269BDB00240BB445DC2BDDA29FDBC9875B13CB26F9DBCE475B3BCEA179CBD3DA9EEBD206B55BEE7D917BE18D3503BFAA14BBBE51158BDD5B22BBD4BE45C3D79F9A3BD4DA3D6BC3382F1BC66E5643D5F8FE43C8DD73DBD94E5F7BD6EF911BE7B6D79BD324067BEDC1E07BE450EB6BDE5708BBC17B481BD917018BD7D6D983C9959583DFEB88BBD597330BC9A7513BC2B2F473D665B70BDE78D92BDED7189BDB4348ABB2668EDBD4F4256BD50508EBCCF3040BC3222893C748832BC2BB8AB3B5C81123E156AA33D93100E3E3BB3A8396D72EF3C159083BD9B108B3B2845D1BB56D7BC3CB248383CAFC68F3D82ECD23C711697BDA6F18D3CDFEAF53D4BE4AD3DE03A833D402E1BBC0CDD8FBDC71772BE182772BD476CA53C397C4C3DC456CC3D4F13AD3DD3D026BDC26B3BBC64C0BBBD7652713DC1FF663D7B4693BDF869D5BD6A7BA2BD428D1ABEAA6AA4BBAA36CC3C84CEE13D43A1C03D4AEB553C0941E8BC41DC0EBDDE1181BDCC6BD1BB77D8C6BD4F73A9BD457057BE899170BE0B50A6BDF08782BD3578313DC0C5A83D541D303DB29C093DA214813C9BC153BDA4CB9DBD1DA6423C43D1DDBC3EF64FBE22994EBE1D88DCBD83B1CA3D560CB33D0963E3BB2E80C43C5C08723C2398953C0F61B73CA7FC30BD8D42483B058E81BDE5DAB73CE5335EBED2B7C6BD35909F3DC1BF743D9495E8BCA1BF35BD1C7E3BBD9144C5BCD8DB643CD7B8C43CF90449BCD8E7E33CF2944ABD07D0A83B1D599EBD88837D3C675CBD3D23BF543DAE4E65BD5A9110BCD95FAFBDCB72B43C2904103D27FD89BBA4E586BDB5154B3C6B62DE3A846682BBA81E803D5F43433D6548373D45A26A3D0B1556BDECD854BDB9A027BD8B498E3D7C6439BD81C352BDBB8343BBAFA556BD2C66883B1D84E63D1598C93D954E803D319D9B3D6F93163D58038FBBC32F6F3D8B0A00BD6E1E183D940F993BE20647BD">
  memref.global constant @constant_1 : memref<6xf32> = dense<[-0.14449811, 0.518111169, -0.135217458, -0.110822015, -0.0504356101, 0.130730152]>
  memref.global constant @constant_0 : memref<6x1x5x5xf32> = dense<"0x7113B0BF933C91BFA9A8463F8622273FAF1E733F25DC0C3E58483040FB9BF53F17378DBFC25CEBBF1EA35BBF8E4680BF735F073D8FD1B03F526FAABE3F53FA3FE3F217BFFE1C07C04038B53FB115CF3FB943113E2856AABFBE7329BFA090C9BFBC90663FEF55C53F7EFE3D3F197D533F2D57E53EABEB633F05334ABF62CA01BEBA1E35BF9592C33E59CA35BFEF4D3ABECC102A3E7D4B253F23FC9ABDC6418CBF869F29BF172F34BF937CB7BF9BE8EBBFDBE420BF6CD428BFC42504BFD00693BE342D983E252D843F5B4AED3D34B08CBF42A5443FA7BF8A3FD582033F1FE060BF38D443BE6C5C4DBFC1F75A3F12F8B93ECDBCD73BEB5A76BF10F9C2BEB234563F343A6D3EA160BDBE23FC8BBF83B6023FB59338BC5FE93D3F842E52BF3326ACBE3D88763EEC603D3F41920B3FD6148E3E7F96D6BF1A19903FD6B6BFBD8FE0E0BF8CDFA33FC898EF3FBB995EBF92E81E40A34A6D3FDF168DBFCF61563FD4192B3F3981923F4841EEBE5C8FACBF99E4F63C52B9DBBF721AC33F97C21A3F21C2B5BF4311C03D6026C8BF760860BF07F5213D09B0C13ED288ED3E773C55BFB79290BE056584BFF8E2D0BF0930E9BF1D9DB9BEB4805DBF44422CBE0EFCFABE6A60853FD09AE23F5FAE0740B8431340AC4A08405FB7B23FB6F159BE3056C1BEA0271BBFE27915BF75F91EBF16A933BFAB3829BF14553ABF98E74CBF6FB7903F5DFDC73FDF2298BF9E945FBE6D71B73DC5C4C83FB2023A3E4124AABFC39213BEBCE30A3FBCA9AC3F923C9ABF31FB86BE454356BF55C0563F30691BBEB06E4DBFB532F9BCEF5027BEEE99303F3413B0BEC7BEECBE19B05BBE00F92FBF">
  func.func @main_graph(%arg0: memref<1x1x28x28xf32>) -> memref<1x10xf32> attributes {input_names = ["image"], output_names = ["prediction"]} {
    %cst = arith.constant 0xFF800000 : f32
    %c28 = arith.constant 28 : index
    %c2 = arith.constant 2 : index
    %c0 = arith.constant 0 : index
    %c1 = arith.constant 1 : index
    %cst_0 = arith.constant 0.000000e+00 : f32
    %0 = memref.get_global @constant_0 : memref<6x1x5x5xf32>
    %1 = memref.get_global @constant_1 : memref<6xf32>
    %2 = memref.alloc() {alignment = 16 : i64} : memref<1x6x28x28xf32>
    %3 = memref.alloc() : memref<f32>
    affine.for %arg1 = 0 to 1 {
      affine.for %arg2 = 0 to 1 {
        affine.for %arg3 = 0 to 6 {
          %12 = affine.apply #map0(%arg2, %arg3)
          affine.for %arg4 = 0 to 28 {
            affine.for %arg5 = 0 to 28 {
              memref.store %cst_0, %3[] : memref<f32>
              affine.for %arg6 = 0 to 1 {
                affine.for %arg7 = max #map1(%arg4) to min #map2(%arg4) {
                  affine.for %arg8 = max #map3(%arg4, %arg5) to min #map4(%arg4, %arg5) {
                    %16 = affine.apply #map5(%arg6)[%arg2]
                    %17 = affine.apply #map6(%arg7, %arg4)
                    %18 = affine.apply #map6(%arg8, %arg5)
                    %19 = memref.load %arg0[%arg1, %16, %17, %18] : memref<1x1x28x28xf32>
                    %20 = memref.load %0[%12, %arg6, %arg7, %arg8] : memref<6x1x5x5xf32>
                    %21 = memref.load %3[] : memref<f32>
                    %22 = arith.mulf %19, %20 : f32
                    %23 = arith.addf %21, %22 : f32
                    memref.store %23, %3[] : memref<f32>
                  }
                }
              }
              %13 = memref.load %3[] : memref<f32>
              %14 = memref.load %1[%12] : memref<6xf32>
              %15 = arith.addf %13, %14 : f32
              memref.store %15, %2[%arg1, %12, %arg4, %arg5] : memref<1x6x28x28xf32>
            }
          }
        }
      }
    }
    %4 = memref.alloc() {alignment = 16 : i64} : memref<1x6x28x28xf32>
    affine.for %arg1 = 0 to 1 {
      affine.for %arg2 = 0 to 6 {
        affine.for %arg3 = 0 to 28 {
          affine.for %arg4 = 0 to 28 {
            %12 = memref.load %2[%arg1, %arg2, %arg3, %arg4] : memref<1x6x28x28xf32>
            %13 = arith.cmpf olt, %12, %cst_0 : f32
            %14 = arith.select %13, %cst_0, %12 : f32
            memref.store %14, %4[%arg1, %arg2, %arg3, %arg4] : memref<1x6x28x28xf32>
          }
        }
      }
    }
    %5 = memref.alloc() {alignment = 16 : i64} : memref<1x6x14x14xf32>
    %6 = memref.alloc() : memref<f32>
    affine.for %arg1 = 0 to 1 {
      affine.for %arg2 = 0 to 6 {
        affine.for %arg3 = 0 to 14 {
          affine.for %arg4 = 0 to 14 {
            memref.store %cst, %6[] : memref<f32>
            %12 = affine.max #map7(%arg3)
            %13 = affine.max #map7(%arg4)
            affine.for %arg5 = 0 to min #map8(%arg3)[%c28, %c2, %c0, %c2, %c1] {
              affine.for %arg6 = 0 to min #map8(%arg4)[%c28, %c2, %c0, %c2, %c1] {
                %15 = arith.addi %arg5, %12 : index
                %16 = arith.addi %arg6, %13 : index
                %17 = memref.load %4[%arg1, %arg2, %15, %16] : memref<1x6x28x28xf32>
                %18 = memref.load %6[] : memref<f32>
                %19 = arith.cmpf ogt, %18, %17 : f32
